{
  "version": "1.0",
  "truncation": null,
  "padding": null,
  "added_tokens": [
    {
      "id": 0,
      "content": "<|endoftext|>",
      "single_word": false,
      "lstrip": false,
      "rstrip": false,
      "normalized": false,
      "special": true
    }
  ],
  "normalizer": null,
  "pre_tokenizer": {
    "type": "ByteLevel",
    "add_prefix_space": false,
    "trim_offsets": true,
    "use_regex": true
  },
  "post_processor": null,
  "decoder": {
    "type": "ByteLevel",
    "add_prefix_space": true,
    "trim_offsets": true,
    "use_regex": true
  },
  "model": {
    "type": "BPE",
    "dropout": null,
    "unk_token": null,
    "continuing_subword_prefix": null,
    "end_of_word_suffix": null,
    "fuse_unk": false,
    "byte_fallback": false,
    "ignore_merges": false,
    "vocab": {
      "<|endoftext|>": 0,
      "!": 1,
      "\"": 2,
      "#": 3,
      "$": 4,
      "%": 5,
      "&": 6,
      "'": 7,
      "(": 8,
      ")": 9,
      "*": 10,
      "+": 11,
      ",": 12,
      "-": 13,
      ".": 14,
      "/": 15,
      "0": 16,
      "1": 17,
      "2": 18,
      "3": 19,
      "4": 20,
      "5": 21,
      "6": 22,
      "7": 23,
      "8": 24,
      "9": 25,
      ":": 26,
      ";": 27,
      "<": 28,
      "=": 29,
      ">": 30,
      "?": 31,
      "@": 32,
      "A": 33,
      "B": 34,
      "C": 35,
      "D": 36,
      "E": 37,
      "F": 38,
      "G": 39,
      "H": 40,
      "I": 41,
      "J": 42,
      "K": 43,
      "L": 44,
      "M": 45,
      "N": 46,
      "O": 47,
      "P": 48,
      "Q": 49,
      "R": 50,
      "S": 51,
      "T": 52,
      "U": 53,
      "V": 54,
      "W": 55,
      "X": 56,
      "Y": 57,
      "Z": 58,
      "[": 59,
      "\\": 60,
      "]": 61,
      "^": 62,
      "_": 63,
      "`": 64,
      "a": 65,
      "b": 66,
      "c": 67,
      "d": 68,
      "e": 69,
      "f": 70,
      "g": 71,
      "h": 72,
      "i": 73,
      "j": 74,
      "k": 75,
      "l": 76,
      "m": 77,
      "n": 78,
      "o": 79,
      "p": 80,
      "q": 81,
      "r": 82,
      "s": 83,
      "t": 84,
      "u": 85,
      "v": 86,
      "w": 87,
      "x": 88,
      "y": 89,
      "z": 90,
      "{": 91,
      "|": 92,
      "}": 93,
      "~": 94,
      "¡": 95,
      "¢": 96,
      "£": 97,
      "¤": 98,
      "¥": 99,
      "¦": 100,
      "§": 101,
      "¨": 102,
      "©": 103,
      "ª": 104,
      "«": 105,
      "¬": 106,
      "®": 107,
      "¯": 108,
      "°": 109,
      "±": 110,
      "²": 111,
      "³": 112,
      "´": 113,
      "µ": 114,
      "¶": 115,
      "·": 116,
      "¸": 117,
      "¹": 118,
      "º": 119,
      "»": 120,
      "¼": 121,
      "½": 122,
      "¾": 123,
      "¿": 124,
      "Â": 125,
      "Ã": 126,
      "Ä": 127,
      "Å": 128,
      "Æ": 129,
      "Ç": 130,
      "É": 131,
      "Ê": 132,
      "Ë": 133,
      "Í": 134,
      "Î": 135,
      "Ï": 136,
      "Ð": 137,
      "Ñ": 138,
      "Û": 139,
      "à": 140,
      "á": 141,
      "â": 142,
      "ã": 143,
      "ä": 144,
      "å": 145,
      "æ": 146,
      "ç": 147,
      "è": 148,
      "î": 149,
      "ï": 150,
      "Ă": 151,
      "ą": 152,
      "Ċ": 153,
      "Đ": 154,
      "Ġ": 155,
      "Ģ": 156,
      "ģ": 157,
      "Ĥ": 158,
      "ĥ": 159,
      "Ħ": 160,
      "ħ": 161,
      "Ĩ": 162,
      "ĩ": 163,
      "Ī": 164,
      "ī": 165,
      "Ĭ": 166,
      "ĭ": 167,
      "Į": 168,
      "į": 169,
      "İ": 170,
      "ı": 171,
      "Ĳ": 172,
      "ĳ": 173,
      "Ĵ": 174,
      "ĵ": 175,
      "Ķ": 176,
      "ķ": 177,
      "ĸ": 178,
      "Ĺ": 179,
      "ĺ": 180,
      "Ļ": 181,
      "ļ": 182,
      "Ľ": 183,
      "ľ": 184,
      "Ŀ": 185,
      "ŀ": 186,
      "Ł": 187,
      "ł": 188,
      "Ń": 189,
      "he": 190,
      "Ġt": 191,
      "Ġa": 192,
      "in": 193,
      "Ġs": 194,
      "Ġw": 195,
      "ed": 196,
      "nd": 197,
      "Ġm": 198,
      "Ġo": 199,
      "Ġthe": 200,
      "Ġb": 201,
      "ing": 202,
      "ou": 203,
      "Ġh": 204,
      "re": 205,
      "Ġhe": 206,
      "Ġf": 207,
      "âĢ": 208,
      "Ġto": 209,
      "er": 210,
      "Ġc": 211,
      "ĠI": 212,
      "Ġand": 213,
      "it": 214,
      "at": 215,
      "as": 216,
      "Ġl": 217,
      "is": 218,
      "Ġher": 219,
      "Ġd": 220,
      "Ġp": 221,
      "ll": 222,
      "en": 223,
      "Ġth": 224,
      "an": 225,
      "Ġg": 226,
      "ar": 227,
      "Ġin": 228,
      "on": 229,
      "ck": 230,
      "or": 231,
      "Ġof": 232,
      "es": 233,
      "Ġwas": 234,
      "om": 235,
      "Ġn": 236,
      "Ġha": 237,
      "ow": 238,
      "Ġmy": 239,
      "ut": 240,
      "Ġy": 241,
      "le": 242,
      "id": 243,
      "us": 244,
      "Ġbe": 245,
      "ot": 246,
      "Ġas": 247,
      "Ġon": 248,
      "Ġyou": 249,
      "Ġe": 250,
      "âĢĻ": 251,
      "Ġst": 252,
      "ly": 253,
      "Ġshe": 254,
      "ld": 255,
      "ĠâĢ": 256,
      "gh": 257,
      "et": 258,
      "Ġit": 259,
      "Ġme": 260,
      "im": 261,
      "ĠS": 262,
      "âĢĿ": 263,
      "ĠâĢľ": 264,
      "ve": 265,
      "ir": 266,
      "Ġu": 267,
      "ay": 268,
      "Ġhis": 269,
      "Ġthat": 270,
      "ver": 271,
      "Ġre": 272,
      "ith": 273,
      "oo": 274,
      "ad": 275,
      "Ġr": 276,
      "ĠT": 277,
      "Ġwith": 278,
      "el": 279,
      "Ġwe": 280,
      "ch": 281,
      "ght": 282,
      "ke": 283,
      "ĠH": 284,
      "ce": 285,
      "ould": 286,
      "Ġwh": 287,
      "Ġfor": 288,
      "al": 289,
      "ur": 290,
      "ent": 291,
      "Ġli": 292,
      "st": 293,
      "Ġhad": 294,
      "Ġk": 295,
      "ĠA": 296,
      "Ġat": 297,
      "all": 298,
      "Ġsh": 299,
      "am": 300,
      "ĠShe": 301,
      "Ġup": 302,
      "Ġse": 303,
      "Ġ\"": 304,
      "pp": 305,
      "her": 306,
      "ack": 307,
      "ked": 308,
      "ro": 309,
      "ri": 310,
      "Ġso": 311,
      "ĠM": 312,
      "Ġan": 313,
      "Ġmo": 314,
      "ted": 315,
      "Ġout": 316,
      "Ġj": 317,
      "Ġsa": 318,
      "ion": 319,
      "ain": 320,
      "Ġco": 321,
      "out": 322,
      "ĠThe": 323,
      "Ġbut": 324,
      "ight": 325,
      "ter": 326,
      "ust": 327,
      "to": 328,
      "Ġdo": 329,
      "ill": 330,
      "Ġhim": 331,
      "Ġfr": 332,
      "ard": 333,
      "uck": 334,
      "Ġne": 335,
      "se": 336,
      "own": 337,
      ".âĢĿ": 338,
      "ra": 339,
      "rou": 340,
      "ĠHe": 341,
      "ant": 342,
      "il": 343,
      "..": 344,
      "Ġback": 345,
      "ct": 346,
      "Ġle": 347,
      "Ġsaid": 348,
      "Ġkn": 349,
      "um": 350,
      "ĠW": 351,
      "Ġfe": 352,
      "if": 353,
      "ome": 354,
      "Ġinto": 355,
      "king": 356,
      "hed": 357,
      "Ġdown": 358,
      "un": 359,
      "Ġnot": 360,
      "Ġsl": 361,
      "Ġloo": 362,
      "ĠJ": 363,
      "ic": 364,
      "Ġcould": 365,
      "Ġfrom": 366,
      "Ġag": 367,
      "ide": 368,
      "Ġall": 369,
      "Ġis": 370,
      "Ġcock": 371,
      "Ġgo": 372,
      "ick": 373,
      "Ġcl": 374,
      "ĠB": 375,
      "Ġhand": 376,
      "Ġab": 377,
      "hen": 378,
      "Ġhave": 379,
      "ast": 380,
      "ally": 381,
      "Ġwere": 382,
      "'s": 383,
      "Ġpus": 384,
      "hing": 385,
      "Ġthis": 386,
      "Ġjust": 387,
      "Ġdid": 388,
      "Ġget": 389,
      "Ġover": 390,
      "Ġlike": 391,
      "Ġal": 392,
      "qu": 393,
      "ss": 394,
      "ull": 395,
      "Ġwould": 396,
      "ind": 397,
      "ore": 398,
      "od": 399,
      "ry": 400,
      "Ġagain": 401,
      "Ġsp": 402,
      "Ġthen": 403,
      "ood": 404,
      "ep": 405,
      "ge": 406,
      "ie": 407,
      "Ġyour": 408,
      "ess": 409,
      "ul": 410,
      "Ġtim": 411,
      "Ġex": 412,
      "ĠC": 413,
      "Ġwhat": 414,
      "ĠD": 415,
      "Ġstar": 416,
      "Ġor": 417,
      "'t": 418,
      "one": 419,
      "Ġde": 420,
      "Ġthem": 421,
      "ake": 422,
      "ell": 423,
      "ure": 424,
      "Ġoff": 425,
      "Ġcon": 426,
      "Ġabout": 427,
      "Ġsm": 428,
      "Ġthey": 429,
      "ting": 430,
      "Ġsee": 431,
      "Ġone": 432,
      "Ġtoo": 433,
      "ab": 434,
      "Ġlo": 435,
      "ig": 436,
      "ace": 437,
      "very": 438,
      ".\"": 439,
      "ame": 440,
      "and": 441,
      "ps": 442,
      "ers": 443,
      "Ġtime": 444,
      "ong": 445,
      "round": 446,
      "sy": 447,
      "Ġro": 448,
      "ile": 449,
      "Ġv": 450,
      "Ġpl": 451,
      "Ġhead": 452,
      "ĠL": 453,
      "Ġwhen": 454,
      "ac": 455,
      "Ġfuck": 456,
      "Ġpussy": 457,
      "iss": 458,
      "Ġmore": 459,
      "--": 460,
      "Ġwor": 461,
      "Ġun": 462,
      "Ġch": 463,
      "You": 464,
      "ĠIt": 465,
      "?âĢĿ": 466,
      "ate": 467,
      "ven": 468,
      "ther": 469,
      "pped": 470,
      "Ġus": 471,
      "ft": 472,
      "Ġass": 473,
      "urn": 474,
      "Ġbl": 475,
      "sel": 476,
      "Ġaround": 477,
      "way": 478,
      "Ġfeel": 479,
      "tle": 480,
      "fore": 481,
      "Ġhard": 482,
      "Ġknow": 483,
      "os": 484,
      "Ġany": 485,
      "Ġare": 486,
      "ving": 487,
      "Ġthere": 488,
      "Ġif": 489,
      "Ġsome": 490,
      "ach": 491,
      "are": 492,
      "self": 493,
      "Ġnow": 494,
      "hat": 495,
      "Ġpull": 496,
      "Ġcan": 497,
      "ag": 498,
      "bb": 499,
      "Ġcom": 500,
      "ved": 501,
      "ĠR": 502,
      "irl": 503,
      ",âĢĿ": 504,
      "Ġlit": 505,
      "Ġbefore": 506,
      "outh": 507,
      "ice": 508,
      "Ġfl": 509,
      "Ġgot": 510,
      "other": 511,
      "elt": 512,
      "Ġby": 513,
      "Ġmouth": 514,
      "Ġbre": 515,
      "Ġey": 516,
      "ng": 517,
      "fter": 518,
      "end": 519,
      "ous": 520,
      "Ġqu": 521,
      "est": 522,
      "Ġtw": 523,
      "op": 524,
      "Ġother": 525,
      "ist": 526,
      "ink": 527,
      "Ġwant": 528,
      "Ġlittle": 529,
      "ond": 530,
      "Ġno": 531,
      "Ġthou": 532,
      "ĠN": 533,
      "Ġfelt": 534,
      "Ġlooked": 535,
      "ive": 536,
      "ress": 537,
      "th": 538,
      "Ġgirl": 539,
      "ody": 540,
      "Ġsu": 541,
      "ered": 542,
      "Ġen": 543,
      "ound": 544,
      "Ġgoing": 545,
      "we": 546,
      "ue": 547,
      "Ġdidn": 548,
      "Ġkne": 549,
      "ĠO": 550,
      "ĠE": 551,
      "ass": 552,
      "ĠK": 553,
      "Ġface": 554,
      "ĠG": 555,
      "Ġbeg": 556,
      "Ġcum": 557,
      "Ġtheir": 558,
      "ation": 559,
      "Ġstarted": 560,
      "Ġbeen": 561,
      "Ġman": 562,
      "ap": 563,
      "Ġeyes": 564,
      "ĠF": 565,
      "led": 566,
      "leas": 567,
      "Ġway": 568,
      "oy": 569,
      "Ġturn": 570,
      "art": 571,
      "Ġbody": 572,
      "Ġwat": 573,
      "ort": 574,
      "Ġbed": 575,
      "ĠP": 576,
      "Ġasked": 577,
      "fe": 578,
      "Ġbet": 579,
      "Ġfir": 580,
      "our": 581,
      "ĠHer": 582,
      "ine": 583,
      "oth": 584,
      "pl": 585,
      "Ġlet": 586,
      "Ġkiss": 587,
      "Ġar": 588,
      "Ġhow": 589,
      "Ġstill": 590,
      "âĢ¦": 591,
      "au": 592,
      "Ġfing": 593,
      "aking": 594,
      "side": 595,
      "ies": 596,
      "ear": 597,
      "Ġeven": 598,
      "ite": 599,
      "ave": 600,
      "pen": 601,
      "Ġgood": 602,
      "Ġwill": 603,
      "Ġgu": 604,
      "Ġlong": 605,
      "Ġcont": 606,
      "ath": 607,
      "Ġleg": 608,
      "Ġsc": 609,
      "Ġdon": 610,
      "ward": 611,
      "ak": 612,
      "Ġwhile": 613,
      "ade": 614,
      "Ġright": 615,
      "Ġtook": 616,
      "ose": 617,
      "Ġopen": 618,
      "xt": 619,
      "Ġthan": 620,
      "Ġthought": 621,
      "Ġroom": 622,
      "Ġpo": 623,
      "Ġsay": 624,
      "Ġche": 625,
      "Ġgr": 626,
      "ched": 627,
      "Ġhands": 628,
      "Ġpulled": 629,
      "aus": 630,
      "Ġevery": 631,
      "Ġonly": 632,
      "med": 633,
      "ks": 634,
      "Ġund": 635,
      "ĠAs": 636,
      "Ġmu": 637,
      "Ġwent": 638,
      "?\"": 639,
      "Ġour": 640,
      "Ġtwo": 641,
      "Ġwho": 642,
      "ud": 643,
      "Ġpro": 644,
      "ĠMy": 645,
      "ĠWe": 646,
      "les": 647,
      "Ġho": 648,
      "Ġafter": 649,
      "rough": 650,
      "Ġsex": 651,
      "here": 652,
      "anted": 653,
      "Ġfirst": 654,
      "Ġbr": 655,
      "te": 656,
      "Ġmom": 657,
      "iz": 658,
      "pt": 659,
      "!âĢĿ": 660,
      "ip": 661,
      "Ġthrough": 662,
      "Ġtold": 663,
      "Ġpre": 664,
      "Ġneed": 665,
      "Ġthink": 666,
      "Ġke": 667,
      "Ġmuch": 668,
      "...": 669,
      "ady": 670,
      "ment": 671,
      "omet": 672,
      "Ġagainst": 673,
      "Ġcame": 674,
      "Ġdoor": 675,
      "Ġwal": 676,
      "Ġlegs": 677,
      "Ġbegan": 678,
      "Ġmade": 679,
      "Ġsuck": 680,
      "Ġput": 681,
      "Ġbec": 682,
      "Ġinside": 683,
      "Ġam": 684,
      "ĠYou": 685,
      "Ġwanted": 686,
      "Ġreally": 687,
      "ated": 688,
      "ied": 689,
      "Ġboth": 690,
      "Ġwa": 691,
      "Ġlips": 692,
      "Ġknew": 693,
      "ich": 694,
      "Ġaway": 695,
      "Ġthing": 696,
      "Ġte": 697,
      "able": 698,
      "nt": 699,
      "ried": 700,
      "Ġslow": 701,
      "Ġvery": 702,
      "Ġeach": 703,
      "Ġmoan": 704,
      "Ġtake": 705,
      "Ġpleas": 706,
      "ning": 707,
      "thing": 708,
      "ire": 709,
      "Ġsomet": 710,
      "gg": 711,
      "Ġunder": 712,
      "Ġdeep": 713,
      "Ġnever": 714,
      "Ġmake": 715,
      "Ġwom": 716,
      "ple": 717,
      "Ġfew": 718,
      "mo": 719,
      "wn": 720,
      "Ġsw": 721,
      "ious": 722,
      "ah": 723,
      "Ġlook": 724,
      "Ġtong": 725,
      "ipp": 726,
      "**": 727,
      "Ġshould": 728,
      "ough": 729,
      "Ġgra": 730,
      "ree": 731,
      "Ġfin": 732,
      "mb": 733,
      "Ġturned": 734,
      "Ġshow": 735,
      "Ġday": 736,
      "----": 737,
      "ol": 738,
      "Ġbit": 739,
      ",\"": 740,
      "Ġtell": 741,
      "ching": 742,
      "irt": 743,
      "Ġtr": 744,
      "ff": 745,
      "Ġim": 746,
      "igh": 747,
      "hes": 748,
      "Ġhapp": 749,
      "ee": 750,
      "air": 751,
      "ĠTh": 752,
      "ream": 753,
      "Ġhere": 754,
      "Ġlove": 755,
      "ang": 756,
      "per": 757,
      "unt": 758,
      "ween": 759,
      "Ġpant": 760,
      "Ġsomething": 761,
      "riend": 762,
      "ny": 763,
      "Ġdick": 764,
      "Ġtongue": 765,
      "Ġunt": 766,
      "Ġac": 767,
      "ily": 768,
      "Ġbig": 769,
      "Ġmin": 770,
      "ms": 771,
      "Ġnight": 772,
      "Ġbetween": 773,
      "Ġtight": 774,
      "Ġgl": 775,
      "ĠThey": 776,
      "Ġsmil": 777,
      "ause": 778,
      "Ġnext": 779,
      "Ġcou": 780,
      "be": 781,
      "ped": 782,
      "ble": 783,
      "Ġfo": 784,
      "bbed": 785,
      "Ġad": 786,
      "Ġtry": 787,
      "Ġbeing": 788,
      "Ġuntil": 789,
      "Ġleft": 790,
      "age": 791,
      "pe": 792,
      "Ġhair": 793,
      "ling": 794,
      "Ġsat": 795,
      "ont": 796,
      "ather": 797,
      "ne": 798,
      "ity": 799,
      "ction": 800,
      "Ġsec": 801,
      "Ġru": 802,
      "Ġbreast": 803,
      "Ġstr": 804,
      "Ġwasn": 805,
      "Ġlick": 806,
      "ool": 807,
      "Ġslowly": 808,
      "Ġhot": 809,
      "Ġhel": 810,
      "Ġanother": 811,
      "Ġfingers": 812,
      "Ġcome": 813,
      "Ġsqu": 814,
      "Ġsure": 815,
      "Ġminut": 816,
      "av": 817,
      "Ġwell": 818,
      "Ġsk": 819,
      "Ġquick": 820,
      "Ġwhere": 821,
      "Ġreal": 822,
      "Ġdis": 823,
      "ĠThen": 824,
      "ating": 825,
      "Ġgetting": 826,
      "ĠBut": 827,
      "Ġsaw": 828,
      "Ġorg": 829,
      "its": 830,
      "Ġcouldn": 831,
      "ced": 832,
      "aked": 833,
      "aught": 834,
      "ĠAnd": 835,
      "ance": 836,
      "ĠWhen": 837,
      "hh": 838,
      "Ġbeh": 839,
      "Ġfucking": 840,
      "ock": 841,
      "Ġcle": 842,
      "Ġguy": 843,
      "Ġwhich": 844,
      "Ġlooking": 845,
      "'m": 846,
      "Ġcontin": 847,
      "ild": 848,
      "!\"": 849,
      "Ġent": 850,
      "Ġcr": 851,
      "Ġlast": 852,
      "Ġwet": 853,
      "Ġtal": 854,
      "Ġclos": 855,
      "ia": 856,
      "Ġside": 857,
      "ful": 858,
      "ty": 859,
      "ens": 860,
      "ouse": 861,
      "Ġown": 862,
      "get": 863,
      "arry": 864,
      "Ġthr": 865,
      "Ġnipp": 866,
      "Ġgre": 867,
      "Ġper": 868,
      "Ġherself": 869,
      "Ġorgas": 870,
      "ob": 871,
      "ark": 872,
      "Ġfront": 873,
      "Ġhome": 874,
      "Ġbehind": 875,
      "Ġres": 876,
      "Ġwalked": 877,
      "Ġpart": 878,
      "ish": 879,
      "ually": 880,
      "ened": 881,
      "ached": 882,
      "Ġapp": 883,
      "Ġyear": 884,
      "Ġmyself": 885,
      "Oh": 886,
      "Ġbecause": 887,
      "most": 888,
      "Ġfeeling": 889,
      "Ġdes": 890,
      "Ġhas": 891,
      "ister": 892,
      "ise": 893,
      "ips": 894,
      "ĠCh": 895,
      "Ġdri": 896,
      "Ġboy": 897,
      "Ġinc": 898,
      "na": 899,
      "Ġrem": 900,
      "so": 901,
      "Ġmoved": 902,
      "Ġwait": 903,
      "Ġdr": 904,
      "Ġsmiled": 905,
      "Ġmind": 906,
      "pping": 907,
      "Ġever": 908,
      "ently": 909,
      "mm": 910,
      "Ġmoment": 911,
      "Ġgirls": 912,
      "ves": 913,
      "room": 914,
      "Ġplay": 915,
      "Ġfriend": 916,
      "ater": 917,
      "ĠâĢĺ": 918,
      "Ġpr": 919,
      "Ġsur": 920,
      "Ġwoman": 921,
      "Ġonto": 922,
      "Ġalmost": 923,
      "Ġhold": 924,
      "Ġear": 925,
      "Ġcar": 926,
      "Ġcunt": 927,
      "Ġcall": 928,
      "ĠAfter": 929,
      "ned": 930,
      "ĠHis": 931,
      "Ġfinger": 932,
      "Ġhu": 933,
      "Ġsoft": 934,
      "act": 935,
      "ank": 936,
      "Ġfull": 937,
      "Ġrel": 938,
      "Ġcontinu": 939,
      "Ġanything": 940,
      "Ġtop": 941,
      "Ġsmall": 942,
      "Ġsit": 943,
      "Ġpe": 944,
      "Ġbreasts": 945,
      "Ġcare": 946,
      "aned": 947,
      "Ġgave": 948,
      "Ġpushed": 949,
      "Ġdoing": 950,
      "ways": 951,
      "Ġsame": 952,
      "bbing": 953,
      "Ġorgasm": 954,
      "Ġwork": 955,
      "Ġkeep": 956,
      "Ġthro": 957,
      "Ġrest": 958,
      "Ġsecond": 959,
      "Ġend": 960,
      "joy": 961,
      "Ġstood": 962,
      "Ġhelp": 963,
      "__": 964,
      "Ġlau": 965,
      "Ġslid": 966,
      "Ġatt": 967,
      "ĠThis": 968,
      "Ġenough": 969,
      "my": 970,
      "Ġminutes": 971,
      "Ġold": 972,
      "Ġnaked": 973,
      "ans": 974,
      "owed": 975,
      "Ġfound": 976,
      "ub": 977,
      "Ġenjoy": 978,
      "ressed": 979,
      "Ġnew": 980,
      "arm": 981,
      "Ġflo": 982,
      "Ġdro": 983,
      "az": 984,
      "Ġ1": 985,
      "Ġbel": 986,
      "Ġsister": 987,
      "Ġclit": 988,
      "Ġquickly": 989,
      "ner": 990,
      "Ġyoung": 991,
      "aster": 992,
      "Ġpass": 993,
      "Ġbo": 994,
      "Ġhouse": 995,
      "ĠThat": 996,
      "ross": 997,
      "Ġstart": 998,
      "Ġmaking": 999,
      "Ġi": 1000,
      "Ġdec": 1001,
      "Ġmother": 1002,
      "Yes": 1003,
      "Ġreached": 1004,
      "Ġswe": 1005,
      "Ġgrabbed": 1006,
      "den": 1007,
      "Ġtoward": 1008,
      "Ġpleasure": 1009,
      "ĠHarry": 1010,
      "Ġheard": 1011,
      "Ġtou": 1012,
      "ded": 1013,
      "Ġshort": 1014,
      "....": 1015,
      "ised": 1016,
      "up": 1017,
      "Ġstro": 1018,
      "Ġalways": 1019,
      "ence": 1020,
      "Ġsto": 1021,
      "Ġwr": 1022,
      "Ġalso": 1023,
      "sh": 1024,
      "Ġkissed": 1025,
      "ax": 1026,
      "ook": 1027,
      "What": 1028,
      "Ġtits": 1029,
      "gether": 1030,
      "red": 1031,
      "umb": 1032,
      "Ġlight": 1033,
      "Ġcontinued": 1034,
      "alls": 1035,
      "Ġtrying": 1036,
      "ĠJo": 1037,
      "Ġexc": 1038,
      "Ġsoon": 1039,
      "owing": 1040,
      "int": 1041,
      "leep": 1042,
      "Ġmost": 1043,
      "Ġblack": 1044,
      "Ġfind": 1045,
      "ince": 1046,
      "Ġstop": 1047,
      "ho": 1048,
      "Ġtogether": 1049,
      "ĠIn": 1050,
      "Ġstand": 1051,
      "add": 1052,
      "Ġgive": 1053,
      "ming": 1054,
      "Ġhips": 1055,
      "aring": 1056,
      "ase": 1057,
      "ĠSo": 1058,
      "aut": 1059,
      "Ġarms": 1060,
      "Ġtried": 1061,
      "ĠMar": 1062,
      "Ġpain": 1063,
      "Ġact": 1064,
      "ition": 1065,
      "Ġthrust": 1066,
      "ual": 1067,
      "oice": 1068,
      "Ġonce": 1069,
      "Ġgi": 1070,
      "hy": 1071,
      "Ġdone": 1072,
      "ung": 1073,
      "Ġfloor": 1074,
      "ready": 1075,
      "Ġmove": 1076,
      "Ġint": 1077,
      "ret": 1078,
      "Ġclose": 1079,
      "ail": 1080,
      "Ġseemed": 1081,
      "Ġrepl": 1082,
      "Ġscream": 1083,
      "Ġthough": 1084,
      "ife": 1085,
      "ided": 1086,
      "Ġalready": 1087,
      "ately": 1088,
      "Ġsho": 1089,
      "Ġbetter": 1090,
      "Ġthings": 1091,
      "ĠWith": 1092,
      "Ġnipples": 1093,
      "Ġlife": 1094,
      "Ġheld": 1095,
      "Ġopened": 1096,
      "ever": 1097,
      "ci": 1098,
      "ipped": 1099,
      "Ġwond": 1100,
      "Ġspe": 1101,
      "Ġexpl": 1102,
      "ering": 1103,
      "Ġwee": 1104,
      "Ġrun": 1105,
      "ĠSt": 1106,
      "ĠThere": 1107,
      "Ġwatched": 1108,
      "Ġhaving": 1109,
      "ness": 1110,
      "'d": 1111,
      "Ġfinally": 1112,
      "Ġste": 1113,
      "pr": 1114,
      "Ġfucked": 1115,
      "cted": 1116,
      "Ġsmile": 1117,
      "Ġlay": 1118,
      "orm": 1119,
      "Ġret": 1120,
      "Ġlot": 1121,
      "inking": 1122,
      "day": 1123,
      "Ġplace": 1124,
      "Ġmay": 1125,
      "Ġbu": 1126,
      "--------": 1127,
      "Ġ.": 1128,
      "read": 1129,
      "Ġcover": 1130,
      "Ġbeaut": 1131,
      "Ġthree": 1132,
      "ott": 1133,
      "Ġlater": 1134,
      "Ġsound": 1135,
      "Ġkept": 1136,
      "Ġel": 1137,
      "Ġgro": 1138,
      "Ġpanties": 1139,
      "Ġready": 1140,
      "ier": 1141,
      "Ġthose": 1142,
      "ike": 1143,
      "ished": 1144,
      "eah": 1145,
      "Ġinst": 1146,
      "Ġchest": 1147,
      "Ġset": 1148,
      "Ġpret": 1149,
      "ĠAl": 1150,
      "Ġnice": 1151,
      "Ġcomple": 1152,
      "Ġthigh": 1153,
      "chool": 1154,
      "Ġits": 1155,
      "ĠBe": 1156,
      "Ġmen": 1157,
      "ized": 1158,
      "ib": 1159,
      "'re": 1160,
      "ump": 1161,
      "Ġmoaned": 1162,
      "Ġbab": 1163,
      "Ġchee": 1164,
      "urt": 1165,
      "****": 1166,
      "Ġfill": 1167,
      "Ġvoice": 1168,
      "oud": 1169,
      "Ġforward": 1170,
      "Ġstra": 1171,
      "Ġlar": 1172,
      "ĠV": 1173,
      "Ġstopped": 1174,
      "ower": 1175,
      "Ġnod": 1176,
      "ina": 1177,
      "ared": 1178,
      "Ġschool": 1179,
      "No": 1180,
      "It": 1181,
      "Ġhor": 1182,
      "Ġhour": 1183,
      "Ġwhy": 1184,
      "lf": 1185,
      "Ġknees": 1186,
      "Ġph": 1187,
      "ible": 1188,
      "Ġword": 1189,
      "Ġtimes": 1190,
      "Ġbreath": 1191,
      "ĠMom": 1192,
      "sw": 1193,
      "ory": 1194,
      "Ġreplied": 1195,
      "Ġacross": 1196,
      "Ġsucking": 1197,
      "Ġdoes": 1198,
      "Ġhop": 1199,
      "Ġyears": 1200,
      "Ġclot": 1201,
      "Ġwife": 1202,
      "Ġsince": 1203,
      "ople": 1204,
      "co": 1205,
      "'ll": 1206,
      "Ġthroat": 1207,
      "Well": 1208,
      "Ġnothing": 1209,
      "Ġred": 1210,
      "Ġballs": 1211,
      "fect": 1212,
      "Ġwarm": 1213,
      "Ġwithout": 1214,
      "mber": 1215,
      "Ġspread": 1216,
      "Ġansw": 1217,
      "Ġmat": 1218,
      "Ġtable": 1219,
      "iful": 1220,
      "Ġused": 1221,
      "Ġob": 1222,
      "igg": 1223,
      "Ġbest": 1224,
      "Ġyes": 1225,
      "ĠU": 1226,
      "~~": 1227,
      "ained": 1228,
      "lly": 1229,
      "ably": 1230,
      "Ġtaking": 1231,
      "ully": 1232,
      "ix": 1233,
      "icked": 1234,
      "ĠWhat": 1235,
      "Ġwatching": 1236,
      "Ġhimself": 1237,
      "Ġwhis": 1238,
      "eez": 1239,
      "Ġneck": 1240,
      "uff": 1241,
      "ention": 1242,
      "Ġfoll": 1243,
      "Ġsha": 1244,
      "Ġcomplete": 1245,
      "Ġgas": 1246,
      "Ġpeople": 1247,
      "Ġmus": 1248,
      "Ġaw": 1249,
      "Ġbutt": 1250,
      "Ġmight": 1251,
      "Ġsurpr": 1252,
      "Ġguys": 1253,
      "Ġmor": 1254,
      "Ġstay": 1255,
      "oke": 1256,
      "ange": 1257,
      "Ġju": 1258,
      "la": 1259,
      "Ġbeautiful": 1260,
      "Ġcouple": 1261,
      "Ġpen": 1262,
      "Ġhalf": 1263,
      "Ġsens": 1264,
      "ĠOn": 1265,
      "ged": 1266,
      "Ġcur": 1267,
      "Ġem": 1268,
      "Ġhear": 1269,
      "Ġloud": 1270,
      "Ġsleep": 1271,
      "Ġcoming": 1272,
      "Ġslight": 1273,
      "rew": 1274,
      "aughter": 1275,
      "Ġbra": 1276,
      "Ġseen": 1277,
      "iv": 1278,
      "Ġfeet": 1279,
      "Ġbaby": 1280,
      "Ġwater": 1281,
      "Ġgreat": 1282,
      "Ġsn": 1283,
      "ert": 1284,
      "aid": 1285,
      "Ġsqueez": 1286,
      "Ġfar": 1287,
      "Ġmean": 1288,
      "Ġran": 1289,
      "Ġlarge": 1290,
      "Ġroll": 1291,
      "Ġpos": 1292,
      "Ġ2": 1293,
      "Ġpretty": 1294,
      "cing": 1295,
      "Ġtowards": 1296,
      "arly": 1297,
      "Ġexp": 1298,
      "Ġgently": 1299,
      "ited": 1300,
      "Ġwhite": 1301,
      "ugg": 1302,
      "ening": 1303,
      "Ġmorning": 1304,
      "Ġcour": 1305,
      "Ġeas": 1306,
      "aced": 1307,
      "less": 1308,
      "oun": 1309,
      "erv": 1310,
      "Ġmust": 1311,
      "lease": 1312,
      "Ġdif": 1313,
      "denly": 1314,
      "fully": 1315,
      "ale": 1316,
      "ĠIf": 1317,
      "Ġcoll": 1318,
      "Ġskin": 1319,
      "ined": 1320,
      "Ġalong": 1321,
      "Ġkind": 1322,
      "ither": 1323,
      "Ġbath": 1324,
      "ĠAn": 1325,
      "ian": 1326,
      "Ġap": 1327,
      "Ġreturn": 1328,
      "Ġpants": 1329,
      "Ġdel": 1330,
      "Ġsil": 1331,
      "Ġdark": 1332,
      "Ġimp": 1333,
      "ĠJen": 1334,
      "ey": 1335,
      "ghed": 1336,
      "hn": 1337,
      "kay": 1338,
      "Ġsud": 1339,
      "That": 1340,
      "addy": 1341,
      "ren": 1342,
      "Ġeverything": 1343,
      "ĠâĢĵ": 1344,
      "ĠSar": 1345,
      "ions": 1346,
      "Ġneeded": 1347,
      "Ġfun": 1348,
      "ons": 1349,
      "airs": 1350,
      "Ġyet": 1351,
      "cc": 1352,
      "ĠNow": 1353,
      "iced": 1354,
      "Ġqui": 1355,
      "Ġclosed": 1356,
      "Ġreme": 1357,
      "==": 1358,
      "Ġarm": 1359,
      "pered": 1360,
      "ĠSh": 1361,
      "ĠMr": 1362,
      "Ġdecided": 1363,
      "Ġsucked": 1364,
      "Ġhole": 1365,
      "Ġclothes": 1366,
      "Ġsuch": 1367,
      "Ġthinking": 1368,
      "ign": 1369,
      "arent": 1370,
      "ĠJess": 1371,
      "Ġmon": 1372,
      "Ġfam": 1373,
      "Ġ(": 1374,
      "Ġcut": 1375,
      "Ġdress": 1376,
      "Ġshower": 1377,
      "Ġlaughed": 1378,
      "ying": 1379,
      "Ġbad": 1380,
      "ured": 1381,
      "ense": 1382,
      "HH": 1383,
      "Ġcomp": 1384,
      "Ġair": 1385,
      "Ġmass": 1386,
      "eth": 1387,
      "Ġide": 1388,
      "Ġbus": 1389,
      "Ġposition": 1390,
      "Ġharder": 1391,
      "rent": 1392,
      "ger": 1393,
      "ult": 1394,
      "Th": 1395,
      "bs": 1396,
      "Ġwhole": 1397,
      "Ġfather": 1398,
      "Ġsays": 1399,
      "Ġable": 1400,
      "Ġthick": 1401,
      "hole": 1402,
      "Ġnodded": 1403,
      "Ġwouldn": 1404,
      "Ġelse": 1405,
      "ord": 1406,
      "Ġwra": 1407,
      "Ġbrother": 1408,
      "Ġmany": 1409,
      "Ġwomen": 1410,
      "Ġdra": 1411,
      "Ġconf": 1412,
      "iously": 1413,
      "Ġplease": 1414,
      "ĠJohn": 1415,
      "Ġtalk": 1416,
      "ten": 1417,
      "Ġhit": 1418,
      "Ġbare": 1419,
      "Ġleaned": 1420,
      "Ġresp": 1421,
      "orry": 1422,
      "Ġsomeone": 1423,
      "Ġ'": 1424,
      "oney": 1425,
      "Ġbegin": 1426,
      "Ġdaughter": 1427,
      "ict": 1428,
      "Ġpoint": 1429,
      "Ġtre": 1430,
      "cy": 1431,
      "Ġtra": 1432,
      "Ġfur": 1433,
      "Ġbelie": 1434,
      "Ġsweet": 1435,
      "Ġpulling": 1436,
      "ices": 1437,
      "ext": 1438,
      "ica": 1439,
      "Ġtast": 1440,
      "ash": 1441,
      "Ġthighs": 1442,
      "Ġleave": 1443,
      "Ġshirt": 1444,
      "vent": 1445,
      "Ġprob": 1446,
      "Ġgrin": 1447,
      "Ġclim": 1448,
      "Ġcompletely": 1449,
      "Ġtak": 1450,
      "ary": 1451,
      "Ġclean": 1452,
      "Ġthese": 1453,
      "ize": 1454,
      "Ġuse": 1455,
      "Ġwide": 1456,
      "Ġjo": 1457,
      "ĠAll": 1458,
      "Ġmine": 1459,
      "Ġpress": 1460,
      "!!": 1461,
      "ĠJust": 1462,
      "aw": 1463,
      "Ġ-": 1464,
      "ĠY": 1465,
      "Ġhigh": 1466,
      "Ġask": 1467,
      "Ġguess": 1468,
      "Ġfriends": 1469,
      "Ġlif": 1470,
      "ĠDan": 1471,
      "Ġhappened": 1472,
      "Ġcourse": 1473,
      "mand": 1474,
      "Ġacc": 1475,
      "Ġpri": 1476,
      "ason": 1477,
      "Ġholding": 1478,
      "ĠNo": 1479,
      "ĠAt": 1480,
      "Ġquite": 1481,
      "Ġwatch": 1482,
      "Ġnoticed": 1483,
      "Ġslut": 1484,
      "Ġrubbing": 1485,
      "Ġcra": 1486,
      "Ġins": 1487,
      "ene": 1488,
      "ically": 1489,
      "right": 1490,
      "Ġloved": 1491,
      "Ġhurt": 1492,
      "Ġkissing": 1493,
      "ape": 1494,
      "Ġshaft": 1495,
      "____": 1496,
      "Ġfell": 1497,
      "Ġbreat": 1498,
      "Ġshot": 1499,
      "Ġlicked": 1500,
      "Ġidea": 1501,
      "ames": 1502,
      "'ve": 1503,
      "band": 1504,
      "Ġsupp": 1505,
      "Ġslightly": 1506,
      "Ġmoving": 1507,
      "Ġsitting": 1508,
      "Ġmet": 1509,
      "ric": 1510,
      "aving": 1511,
      "Ġleast": 1512,
      "Ġbedroom": 1513,
      "Ġstanding": 1514,
      "Ġmeet": 1515,
      "Ġdiffe": 1516,
      "Ġtri": 1517,
      "Ġinv": 1518,
      "rought": 1519,
      "ĠChr": 1520,
      "Ġasshole": 1521,
      "umped": 1522,
      "Ġbro": 1523,
      "Ġexper": 1524,
      "Ġcalled": 1525,
      "Ġ3": 1526,
      "Ġhus": 1527,
      "Ġbur": 1528,
      "Ġactually": 1529,
      "vers": 1530,
      "Ġbrought": 1531,
      "Ġfour": 1532,
      "no": 1533,
      "Ġphone": 1534,
      "Ġwearing": 1535,
      "Ġperfect": 1536,
      "Ġhuge": 1537,
      "Ġlicking": 1538,
      "night": 1539,
      "Ġapart": 1540,
      "uring": 1541,
      "ĠHow": 1542,
      "ings": 1543,
      "ley": 1544,
      "Ġmar": 1545,
      "ĠDe": 1546,
      "Ġcor": 1547,
      "Ġunderst": 1548,
      "Ġfree": 1549,
      "Ġbathroom": 1550,
      "ĠCar": 1551,
      "ract": 1552,
      "Ġsever": 1553,
      "Ġgri": 1554,
      "Ġpers": 1555,
      "Ġquiet": 1556,
      "Ġload": 1557,
      "Ġtip": 1558,
      "Ġgiving": 1559,
      "fort": 1560,
      "friend": 1561,
      "Ġord": 1562,
      "Ġstom": 1563,
      "Ġheart": 1564,
      "ides": 1565,
      "So": 1566,
      "Ġbar": 1567,
      "Ġlow": 1568,
      "Ġbreak": 1569,
      "Ġdad": 1570,
      "Ġfinished": 1571,
      "iff": 1572,
      "Ġcloser": 1573,
      "Ġseveral": 1574,
      "udd": 1575,
      "row": 1576,
      "vel": 1577,
      "Ġra": 1578,
      "itc": 1579,
      "Ġplan": 1580,
      "Ġcheeks": 1581,
      "Ġremo": 1582,
      "Ġwhispered": 1583,
      "Ġquest": 1584,
      "Ġbelieve": 1585,
      "Ġed": 1586,
      "ĠGod": 1587,
      "Ġread": 1588,
      "Ġsim": 1589,
      "medi": 1590,
      "We": 1591,
      "Ġcons": 1592,
      "pect": 1593,
      "rest": 1594,
      "Ġcontro": 1595,
      "Ġprobably": 1596,
      "ush": 1597,
      "Ġmid": 1598,
      "Ġstomach": 1599,
      "Ġpast": 1600,
      "Ġbott": 1601,
      "Ġtouch": 1602,
      "ru": 1603,
      "aged": 1604,
      "endo": 1605,
      "Ġtalking": 1606,
      "Ġstraight": 1607,
      "Ġwonder": 1608,
      "used": 1609,
      "amp": 1610,
      "ĠFr": 1611,
      "Ġfirm": 1612,
      "Ġname": 1613,
      "Ġeye": 1614,
      "Ġamaz": 1615,
      "Ġskirt": 1616,
      "Ġere": 1617,
      "Ġpressed": 1618,
      "<|": 1619,
      "|>": 1620,
      "ftext": 1621,
      "endoftext": 1622,
      "Ġposs": 1623,
      "Ġwon": 1624,
      "Ġwaiting": 1625,
      "ushed": 1626,
      "Ġext": 1627,
      "Ġsuddenly": 1628,
      "em": 1629,
      "Ġfall": 1630,
      "Ġhusband": 1631,
      "Ġes": 1632,
      "Ġhappy": 1633,
      "Ġrunning": 1634,
      "The": 1635,
      "any": 1636,
      "ove": 1637,
      "Ġmaybe": 1638,
      "Ġfore": 1639,
      "Ġattention": 1640,
      "gin": 1641,
      "Ġhadn": 1642,
      "Ġdrink": 1643,
      "cked": 1644,
      "Ġgone": 1645,
      "Ġrealized": 1646,
      "Ġlaugh": 1647,
      "cept": 1648,
      "Ġswall": 1649,
      "rie": 1650,
      "Ġlonger": 1651,
      "Yeah": 1652,
      "Ġsexy": 1653,
      "ik": 1654,
      "Ġwords": 1655,
      "Ġser": 1656,
      "Ġshorts": 1657,
      "app": 1658,
      "Ġdog": 1659,
      "Ġfig": 1660,
      "ĠNot": 1661,
      "Ġimmedi": 1662,
      "og": 1663,
      "Ġdifferent": 1664,
      "Ġsaying": 1665,
      "ĠJack": 1666,
      "onna": 1667,
      "head": 1668,
      "sed": 1669,
      "Ġshock": 1670,
      "Ġfast": 1671,
      "Ġfilled": 1672,
      "ect": 1673,
      "Ġunc": 1674,
      "Ġstret": 1675,
      "Ġjob": 1676,
      "Ġdays": 1677,
      "Ġpushing": 1678,
      "Ġinter": 1679,
      "Ġtear": 1680,
      "Ġpar": 1681,
      "Ġkid": 1682,
      "Ġstud": 1683,
      "Ġhung": 1684,
      "lex": 1685,
      "Ġeither": 1686,
      "Ġwaist": 1687,
      "Ġbottom": 1688,
      "ug": 1689,
      "Ġfamily": 1690,
      "Ġfeels": 1691,
      "osed": 1692,
      "Ġworked": 1693,
      "ĠJessica": 1694,
      "Ġemb": 1695,
      "Ġpenis": 1696,
      "Ġtaste": 1697,
      "Ġdef": 1698,
      "Ġpush": 1699,
      "Ġdire": 1700,
      "Ġanyone": 1701,
      "Ġvis": 1702,
      "Ġfact": 1703,
      "ĠSarah": 1704,
      "unk": 1705,
      "antly": 1706,
      "Ġcre": 1707,
      "ĠOh": 1708,
      "Ġeveryone": 1709,
      "Ġrelax": 1710,
      "ired": 1711,
      "Ġje": 1712,
      "Ġperson": 1713,
      "Ġcry": 1714,
      "Ġpur": 1715,
      "ĠMe": 1716,
      "Ġcovered": 1717,
      "Ġsorry": 1718,
      "Ġweek": 1719,
      "old": 1720,
      "Ġseat": 1721,
      "Ġboys": 1722,
      "mer": 1723,
      "Ġentire": 1724,
      "Ġmusc": 1725,
      "Ġround": 1726,
      "Ġbring": 1727,
      "Ġshoulder": 1728,
      "Ġshit": 1729,
      "Ġdin": 1730,
      "Ġlooks": 1731,
      "atch": 1732,
      "Ġgod": 1733,
      "ead": 1734,
      "Ġnipple": 1735,
      "Ġimmediately": 1736,
      "Ġjuices": 1737,
      "Ġalone": 1738,
      "ĠSam": 1739,
      "Ġrubbed": 1740,
      "Ġwall": 1741,
      "ĠWh": 1742,
      "Ġparent": 1743,
      "Ġwind": 1744,
      "Ġworking": 1745,
      "ging": 1746,
      "aps": 1747,
      "Ġcontrol": 1748,
      "Ġcaught": 1749,
      "Ġstri": 1750,
      "Ġchair": 1751,
      "Ġrec": 1752,
      "Ġrolled": 1753,
      "Ġfoot": 1754,
      "Ġslipped": 1755,
      "Ġexperi": 1756,
      "Ġhum": 1757,
      "Ġcaus": 1758,
      "Ġshook": 1759,
      "ces": 1760,
      "Ġstep": 1761,
      "Ġwrapped": 1762,
      "Ġcouch": 1763,
      "Ġwalk": 1764,
      "Ġsexual": 1765,
      "iew": 1766,
      "Ġplaced": 1767,
      "Ġbitch": 1768,
      "hel": 1769,
      "Ġpower": 1770,
      "els": 1771,
      "ial": 1772,
      "indy": 1773,
      "Ġfre": 1774,
      "erm": 1775,
      "ply": 1776,
      "Ġlifted": 1777,
      "itchen": 1778,
      "Ġyell": 1779,
      "Ġson": 1780,
      "Ġreach": 1781,
      "ĠJan": 1782,
      "Ġclass": 1783,
      "Ġshoulders": 1784,
      "Ġhours": 1785,
      "Ġgigg": 1786,
      "Ġoutside": 1787,
      "Ġkitchen": 1788,
      "Ġlaid": 1789,
      "Ġliked": 1790,
      "Ġunderstand": 1791,
      "att": 1792,
      "Ġadm": 1793,
      "ations": 1794,
      "ird": 1795,
      "ins": 1796,
      "Ġhell": 1797,
      "Ġmonth": 1798,
      "tered": 1799,
      "Ġfollowed": 1800,
      "Ġstepped": 1801,
      "Ġpound": 1802,
      "Ġfaster": 1803,
      "Ġworld": 1804,
      "Ġground": 1805,
      "Ġbecame": 1806,
      "ors": 1807,
      "ĠBr": 1808,
      "Ġwrong": 1809,
      "Ġsub": 1810,
      "Ġinches": 1811,
      "ical": 1812,
      "Ġblood": 1813,
      "aining": 1814,
      "Ġtonight": 1815,
      "Ġgroaned": 1816,
      "eng": 1817,
      "Ġscreamed": 1818,
      "Ġdressed": 1819,
      "ĠRon": 1820,
      "Ġleaving": 1821,
      "ĠOnce": 1822,
      "Ġminute": 1823,
      "Ġimag": 1824,
      "Ġremember": 1825,
      "Ġprom": 1826,
      "Ġ5": 1827,
      "ony": 1828,
      "ime": 1829,
      "Ġstrong": 1830,
      "Ġdeeper": 1831,
      "Ġfurther": 1832,
      "Ġreg": 1833,
      "otion": 1834,
      "Ġparents": 1835,
      "Ġstory": 1836,
      "Ġappro": 1837,
      "ows": 1838,
      "Ġsoftly": 1839,
      "Ġmiss": 1840,
      "Ġseconds": 1841,
      "ĠDo": 1842,
      "Ġboo": 1843,
      "Ġconc": 1844,
      "iding": 1845,
      "Do": 1846,
      "Ġless": 1847,
      "Ġstick": 1848,
      "Ġeat": 1849,
      "----------------": 1850,
      "acing": 1851,
      "Ġheav": 1852,
      "irgin": 1853,
      "Ġbox": 1854,
      "Ġbuild": 1855,
      "Ġjer": 1856,
      "Ġstuff": 1857,
      "Ġseeing": 1858,
      "Ġsmell": 1859,
      "Ġrock": 1860,
      "Ġdoesn": 1861,
      "Ġstre": 1862,
      "Ġchang": 1863,
      "Ġgasped": 1864,
      "gn": 1865,
      "Ġedge": 1866,
      "Ġlost": 1867,
      "amn": 1868,
      "ĠTom": 1869,
      "Ġstared": 1870,
      "Ġdropped": 1871,
      "Ġpicked": 1872,
      "Ġtaken": 1873,
      "arr": 1874,
      "Ġnear": 1875,
      "ĠLu": 1876,
      "ĠOne": 1877,
      "And": 1878,
      "Ġgonna": 1879,
      "andy": 1880,
      "iness": 1881,
      "Ġind": 1882,
      "Ġvag": 1883,
      "ets": 1884,
      "Ġmoaning": 1885,
      "ĠFor": 1886,
      "Ġexcited": 1887,
      "zy": 1888,
      "bed": 1889,
      "Ġamazing": 1890,
      "Ġtoday": 1891,
      "irty": 1892,
      "ount": 1893,
      "ĠMike": 1894,
      "Ġhang": 1895,
      "âĢĿ.": 1896,
      "Ġhope": 1897,
      "Ġletting": 1898,
      "Ġknowing": 1899,
      "eared": 1900,
      "ĠCindy": 1901,
      "ertain": 1902,
      "Ġbag": 1903,
      "Ġvirgin": 1904,
      "Ġpict": 1905,
      "ures": 1906,
      "Ġmess": 1907,
      "âĢ¦âĢĿ": 1908,
      "ex": 1909,
      "ular": 1910,
      "Ġliving": 1911,
      "Ġrespond": 1912,
      "ored": 1913,
      "akes": 1914,
      "ude": 1915,
      "âĢĶ": 1916,
      "Ġblond": 1917,
      "Ġdream": 1918,
      "Ġchild": 1919,
      "Ġsmo": 1920,
      "iver": 1921,
      "Ġanswered": 1922,
      "inted": 1923,
      "aybe": 1924,
      "Ġref": 1925,
      "hhhh": 1926,
      "Ġpassed": 1927,
      "Ġreturned": 1928,
      "ased": 1929,
      "Ġmil": 1930,
      "terest": 1931,
      "He": 1932,
      "oll": 1933,
      "Ġdist": 1934,
      "isa": 1935,
      "Ġang": 1936,
      "Ġsurprised": 1937,
      "ength": 1938,
      "cus": 1939,
      "ents": 1940,
      "Ġplaying": 1941,
      "Ġdinner": 1942,
      "Ġglass": 1943,
      "Ġlear": 1944,
      "Ġfles": 1945,
      "ĠJim": 1946,
      "Ġlist": 1947,
      "Ġpink": 1948,
      "Ġmatter": 1949,
      "Ġtow": 1950,
      "otch": 1951,
      "********": 1952,
      "iting": 1953,
      "Ġpassion": 1954,
      "Ġhorny": 1955,
      "00": 1956,
      "orn": 1957,
      "illy": 1958,
      "Ġdisapp": 1959,
      "Ġothers": 1960,
      "~~~~": 1961,
      "Ġfant": 1962,
      "Ġkill": 1963,
      "Ġstaring": 1964,
      "dle": 1965,
      "Ġbreathing": 1966,
      "Ġstarting": 1967,
      "iny": 1968,
      "Ġokay": 1969,
      "sing": 1970,
      "mor": 1971,
      "But": 1972,
      "ara": 1973,
      "Ġarri": 1974,
      "ĠJames": 1975,
      "Ġpub": 1976,
      "Ġobv": 1977,
      "Ġlust": 1978,
      "Ġfine": 1979,
      "Ġlength": 1980,
      "Ġbes": 1981,
      "Ġhappen": 1982,
      "ager": 1983,
      "Ġcold": 1984,
      "irc": 1985,
      "Ġenjoying": 1986,
      "Ġquestion": 1987,
      "Ġlate": 1988,
      "Ġinch": 1989,
      "Ġlap": 1990,
      "ising": 1991,
      "Ġwalking": 1992,
      "anced": 1993,
      "Ġinterest": 1994,
      "Ġcumming": 1995,
      "Ġview": 1996,
      "where": 1997,
      "ping": 1998,
      "Ġago": 1999,
      "ph": 2000,
      "Ġpick": 2001,
      "aled": 2002,
      "Ġabove": 2003,
      "umping": 2004,
      "gged": 2005,
      "Ġprot": 2006,
      "Ġcrotch": 2007,
      "ael": 2008,
      "ĠAsh": 2009,
      "Ġblue": 2010,
      "Ġproble": 2011,
      "Ġslam": 2012,
      "Ġstroking": 2013,
      "Ġcheek": 2014,
      "ĠMary": 2015,
      "ively": 2016,
      "Ġdep": 2017,
      "ĠKat": 2018,
      "ror": 2019,
      "Ġfive": 2020,
      "Ġsent": 2021,
      "ĠSte": 2022,
      "Ġarou": 2023,
      "Ġcam": 2024,
      "Ġfully": 2025,
      "How": 2026,
      "Ġanswer": 2027,
      "ĠAlex": 2028,
      "kes": 2029,
      "ĠJe": 2030,
      "Ġspot": 2031,
      "Ġpun": 2032,
      "ĠRe": 2033,
      "Ġdou": 2034,
      "Ġbarely": 2035,
      "ĠAng": 2036,
      "Ġblow": 2037,
      "ĠAmy": 2038,
      "ĠJul": 2039,
      "Ġrap": 2040,
      "Ġer": 2041,
      "cial": 2042,
      "Ġtelling": 2043,
      "Ġinf": 2044,
      "ĠLisa": 2045,
      "Ġmiddle": 2046,
      "Ġbent": 2047,
      "Ġ,": 2048,
      "Ġforce": 2049,
      "Ġhall": 2050,
      "ky": 2051,
      "Ġpat": 2052,
      "Ġreason": 2053,
      "Ġchange": 2054,
      "Ġnorm": 2055,
      "Ġsight": 2056,
      "Ġflesh": 2057,
      "Ġsal": 2058,
      "Ġforth": 2059,
      "orge": 2060,
      "Ġsquir": 2061,
      "Ġbelly": 2062,
      "Ġsqueezed": 2063,
      "Ġtor": 2064,
      "Ġpay": 2065,
      "asing": 2066,
      "Ġcaress": 2067,
      "ĠJake": 2068,
      "Ġcried": 2069,
      "ĠEvery": 2070,
      "stairs": 2071,
      "ĠTo": 2072,
      "Ġcal": 2073,
      "Ġenjoyed": 2074,
      "Ġoffice": 2075,
      "atur": 2076,
      "Ġsmiling": 2077,
      "Ġsliding": 2078,
      "Ġgrow": 2079,
      "Ġpair": 2080,
      "Ġpres": 2081,
      "ments": 2082,
      "lo": 2083,
      "Ġentered": 2084,
      "ĠFin": 2085,
      "Ġmoans": 2086,
      "asy": 2087,
      "ĠAd": 2088,
      "She": 2089,
      "Ġdrive": 2090,
      "ĠDad": 2091,
      "Ġforced": 2092,
      "Ġ4": 2093,
      "me": 2094,
      "ison": 2095,
      "Ġcheck": 2096,
      "apped": 2097,
      "Ġpin": 2098,
      "Ġnearly": 2099,
      "Ġcirc": 2100,
      "Ġolder": 2101,
      "Ġshut": 2102,
      "Ġhers": 2103,
      "====": 2104,
      "ervous": 2105,
      "Ġtears": 2106,
      "Ġdet": 2107,
      "ĠâĢ¦": 2108,
      "ĠDaddy": 2109,
      "Don": 2110,
      "isf": 2111,
      "Ġmoney": 2112,
      "Ġmag": 2113,
      "isted": 2114,
      "Ġfire": 2115,
      "Ġexact": 2116,
      "Ġfight": 2117,
      "pected": 2118,
      "Ġworry": 2119,
      "Ġopening": 2120,
      "ĠMaster": 2121,
      "reed": 2122,
      "Ġraised": 2123,
      "Ġtot": 2124,
      "Ġheaded": 2125,
      "ident": 2126,
      "itch": 2127,
      "uth": 2128,
      "Ġnervous": 2129,
      "Ġevent": 2130,
      "aces": 2131,
      "Ġreve": 2132,
      "Ġsig": 2133,
      "Ġdild": 2134,
      "Ġchance": 2135,
      "Ġsurprise": 2136,
      "du": 2137,
      "aling": 2138,
      "enty": 2139,
      "ĠChris": 2140,
      "by": 2141,
      "Ġevening": 2142,
      "ĠMo": 2143,
      "but": 2144,
      "ches": 2145,
      "Ġbecome": 2146,
      "Ġspent": 2147,
      "Ġremoved": 2148,
      "Ġtrou": 2149,
      "Ġturning": 2150,
      "Ġsweat": 2151,
      "Ġwonderful": 2152,
      "inny": 2153,
      "ann": 2154,
      "Ġlead": 2155,
      "Ġdrove": 2156,
      "Ġwar": 2157,
      "bby": 2158,
      "Ġled": 2159,
      "Ġocc": 2160,
      "Ġslide": 2161,
      "ery": 2162,
      "als": 2163,
      "Hey": 2164,
      "Ġstrugg": 2165,
      "unch": 2166,
      "Ġgag": 2167,
      "asted": 2168,
      "Ġadd": 2169,
      "Ġwild": 2170,
      "acked": 2171,
      "Ġtouched": 2172,
      "Ġshowed": 2173,
      "Ġsign": 2174,
      "Ġpossible": 2175,
      "fortable": 2176,
      "Ġlim": 2177,
      "Ġmeant": 2178,
      "Ġsmooth": 2179,
      "Ġbroke": 2180,
      "ĠUn": 2181,
      "aur": 2182,
      "Ġshoot": 2183,
      "Ġthoughts": 2184,
      "ĠMark": 2185,
      "Ġele": 2186,
      "Ġpool": 2187,
      "ĠDon": 2188,
      "Now": 2189,
      "Ġincred": 2190,
      "men": 2191,
      "tic": 2192,
      "ĠMel": 2193,
      "ilt": 2194,
      "...\"": 2195,
      "Ġknock": 2196,
      "Ġten": 2197,
      "urb": 2198,
      "ili": 2199,
      "Ġbrown": 2200,
      "Ġusing": 2201,
      "Ġyourself": 2202,
      "ffe": 2203,
      "Ġcertain": 2204,
      "Ġboun": 2205,
      "Ġbase": 2206,
      "cover": 2207,
      "ĠFinally": 2208,
      "Ġadded": 2209,
      "Ġspl": 2210,
      "Ġdesk": 2211,
      "Ġjeans": 2212,
      "Ġ6": 2213,
      "Ġnose": 2214,
      "Ġagreed": 2215,
      "Ġreleas": 2216,
      "Ġsatisf": 2217,
      "Ġlower": 2218,
      "Ġslit": 2219,
      "Ġdaddy": 2220,
      "Ġdripping": 2221,
      "Ġasleep": 2222,
      "Ġrub": 2223,
      "ator": 2224,
      "Ġgiven": 2225,
      "cess": 2226,
      "Ġspoke": 2227,
      "Ġinstead": 2228,
      "ĠGinny": 2229,
      "Ġsize": 2230,
      "ĠEven": 2231,
      "Ġblonde": 2232,
      "ates": 2233,
      "ĠBy": 2234,
      "Ġopp": 2235,
      "Ġduring": 2236,
      "Ġbeside": 2237,
      "Ġfit": 2238,
      "ctions": 2239,
      "Ġnumb": 2240,
      "Ġdrop": 2241,
      "elly": 2242,
      "ione": 2243,
      "Ġtightly": 2244,
      "Ġsun": 2245,
      "Ġsugg": 2246,
      "Ġwhore": 2247,
      "Ġter": 2248,
      "Ġpill": 2249,
      "Ġspr": 2250,
      "Ġwaited": 2251,
      ".âĢĻ": 2252,
      "Why": 2253,
      "Ġwithin": 2254,
      "Ġcolle": 2255,
      "Ġbuck": 2256,
      "Ġthrew": 2257,
      "ĠEm": 2258,
      "wards": 2259,
      "Ġisn": 2260,
      "ipping": 2261,
      "Ġesc": 2262,
      "Ġrather": 2263,
      "arrass": 2264,
      "Ġsle": 2265,
      "imes": 2266,
      "gan": 2267,
      "ĠAshley": 2268,
      "Ġcocks": 2269,
      "ĠWell": 2270,
      "ĠHerm": 2271,
      "Ġclear": 2272,
      "Ġmanaged": 2273,
      "more": 2274,
      "Ġdesire": 2275,
      "Ġslave": 2276,
      "Ġdildo": 2277,
      "Ġok": 2278,
      "selves": 2279,
      "Ġarea": 2280,
      "aning": 2281,
      "ole": 2282,
      "Ġcamer": 2283,
      "Ġfem": 2284,
      "Ġfear": 2285,
      "lier": 2286,
      "Ġclimax": 2287,
      "........": 2288,
      "This": 2289,
      "Ġexpect": 2290,
      "OO": 2291,
      "Ġembarrass": 2292,
      "ended": 2293,
      "Ġexactly": 2294,
      "though": 2295,
      "Ġnotice": 2296,
      "Fuck": 2297,
      "Ġeng": 2298,
      "Ġrough": 2299,
      "Ġmonths": 2300,
      "Ġwin": 2301,
      "Ġproblem": 2302,
      "Ġteeth": 2303,
      "Ġwants": 2304,
      "________": 2305,
      "ĠHermione": 2306,
      "ship": 2307,
      "Ġwear": 2308,
      "Ġvagina": 2309,
      "ze": 2310,
      "Ġring": 2311,
      "Ġmov": 2312,
      "Ġage": 2313,
      "Ġwindow": 2314,
      "Ġpiss": 2315,
      "Ġtit": 2316,
      "lor": 2317,
      "zz": 2318,
      "ashed": 2319,
      "Ġweeks": 2320,
      "ift": 2321,
      "Ġbuilding": 2322,
      "ested": 2323,
      "amed": 2324,
      "Ġtiny": 2325,
      "Are": 2326,
      "ushing": 2327,
      "Ġtalked": 2328,
      "ĠBen": 2329,
      "mon": 2330,
      "Ġgrinned": 2331,
      "ĠEl": 2332,
      "Ġabs": 2333,
      "Ġenc": 2334,
      "Ġpie": 2335,
      "Ġchanged": 2336,
      "ature": 2337,
      "ute": 2338,
      "sit": 2339,
      "Ġearly": 2340,
      "Ġstroke": 2341,
      "Ġstuck": 2342,
      "Ġparty": 2343,
      "Ġwondered": 2344,
      "Ġur": 2345,
      "Ġgets": 2346,
      "Ġbod": 2347,
      "Ġempt": 2348,
      "Ġjumped": 2349,
      "Ġsend": 2350,
      "irth": 2351,
      "ibr": 2352,
      "Ġsighed": 2353,
      "Ġspeak": 2354,
      "Ġearlier": 2355,
      "cially": 2356,
      "Ġland": 2357,
      "Ġsort": 2358,
      "âĢ¦.": 2359,
      "Ġcond": 2360,
      "Ġstiff": 2361,
      "ĠIs": 2362,
      "Ġvide": 2363,
      "aded": 2364,
      "Ġlip": 2365,
      "Good": 2366,
      "Ġwhim": 2367,
      "ĠJenny": 2368,
      "Ġburn": 2369,
      "umbled": 2370,
      "ĠFuck": 2371,
      "ĠZ": 2372,
      "Ġtown": 2373,
      "Ġgrab": 2374,
      "Ġsecret": 2375,
      "nie": 2376,
      "ief": 2377,
      "Ġtowel": 2378,
      "Ġlocked": 2379,
      "ought": 2380,
      "Ġdirty": 2381,
      "Ġbene": 2382,
      "ĠMich": 2383,
      "Ġputting": 2384,
      "Ġtrue": 2385,
      "imed": 2386,
      "ĠCl": 2387,
      "Ġvibr": 2388,
      "ĠRob": 2389,
      "oring": 2390,
      "Ġstroked": 2391,
      "ject": 2392,
      "Ġgent": 2393,
      "Ġquietly": 2394,
      "ingle": 2395,
      "ster": 2396,
      "Ġseem": 2397,
      "ues": 2398,
      "Ġ...": 2399,
      "Ġcompl": 2400,
      "Ġwhatever": 2401,
      "ĠNe": 2402,
      "Ġmotion": 2403,
      "Ġcool": 2404,
      "Ġrememb": 2405,
      "Ġgen": 2406,
      "Ġbul": 2407,
      "Ġhon": 2408,
      "ĠMatt": 2409,
      "Ġgaz": 2410,
      "Ġgame": 2411,
      "Ġcorner": 2412,
      "Ġstairs": 2413,
      "ĠSc": 2414,
      "Ġshudd": 2415,
      "ĠWhile": 2416,
      "itely": 2417,
      "Ġteen": 2418,
      "Ġgirlfriend": 2419,
      "Ġshaking": 2420,
      "Ġhelped": 2421,
      "Ġline": 2422,
      "morrow": 2423,
      "CK": 2424,
      "Ġthumb": 2425,
      "Ġfav": 2426,
      "Ġtomorrow": 2427,
      "Ġexperience": 2428,
      "Ġdirect": 2429,
      "Ġstarts": 2430,
      "Ġpract": 2431,
      "Ġlying": 2432,
      "Ġplayed": 2433,
      "Ġsounds": 2434,
      "ĠSl": 2435,
      "Ġthrobbing": 2436,
      "Ġthrusting": 2437,
      "Ġanymore": 2438,
      "Ġmuscles": 2439,
      "Ġfood": 2440,
      "Ġmir": 2441,
      "ane": 2442,
      "Ġmakes": 2443,
      "ken": 2444,
      "Ġcausing": 2445,
      "itive": 2446,
      "Ġadmit": 2447,
      "Ġyeah": 2448,
      "Ġchuck": 2449,
      "Ġwanting": 2450,
      "Ġheat": 2451,
      "pecially": 2452,
      "Ġmast": 2453,
      "Okay": 2454,
      "Ġcap": 2455,
      "oming": 2456,
      "Ġforg": 2457,
      "Ġhur": 2458,
      "Not": 2459,
      "Ġdraw": 2460,
      "Ġfigure": 2461,
      "yle": 2462,
      "Ġconsid": 2463,
      "Ġoften": 2464,
      "osh": 2465,
      "Ġstretched": 2466,
      "man": 2467,
      "Ġbat": 2468,
      "aren": 2469,
      "Ġexh": 2470,
      "Ġdry": 2471,
      "aging": 2472,
      "vin": 2473,
      "aul": 2474,
      "Ġgiggled": 2475,
      "achel": 2476,
      "yl": 2477,
      "Ġrep": 2478,
      "ĠMrs": 2479,
      "Ġburied": 2480,
      "Ġarrived": 2481,
      "Ġlightly": 2482,
      "Ġcu": 2483,
      "Ġdev": 2484,
      "Ġcute": 2485,
      "Ġthin": 2486,
      "Ġpee": 2487,
      "Ġsix": 2488,
      "Ġdelight": 2489,
      "Ġgentle": 2490,
      "Ġcream": 2491,
      "ibly": 2492,
      "Ġkids": 2493,
      "Ġbodies": 2494,
      "een": 2495,
      "anie": 2496,
      "ding": 2497,
      "Ġheavy": 2498,
      "Ġerection": 2499,
      "fast": 2500,
      "ĠKim": 2501,
      "Ġeasily": 2502,
      "Ġspecial": 2503,
      "Ġnormal": 2504,
      "Ġerect": 2505,
      "Ġconvers": 2506,
      "ĠQ": 2507,
      "Ġincre": 2508,
      "ĠLe": 2509,
      "aint": 2510,
      "Ġeasy": 2511,
      "Ġspend": 2512,
      "istress": 2513,
      "Ġboyfriend": 2514,
      "ĠChrist": 2515,
      "ĠYes": 2516,
      "cks": 2517,
      "Ġball": 2518,
      "Ġchar": 2519,
      "Ġdefin": 2520,
      "Ġexplod": 2521,
      "ĠStep": 2522,
      "Ġdelic": 2523,
      "ĠPlease": 2524,
      "My": 2525,
      "how": 2526,
      "Ġprep": 2527,
      "ĠBefore": 2528,
      "Ġeager": 2529,
      "Ġmasturb": 2530,
      "ĠWhy": 2531,
      "If": 2532,
      "anna": 2533,
      "Ġbusiness": 2534,
      "uation": 2535,
      "ooking": 2536,
      "Ġhesit": 2537,
      "Ġcontinue": 2538,
      "Ġgrou": 2539,
      "arl": 2540,
      "Ġyelled": 2541,
      "Ġshoved": 2542,
      "Ġform": 2543,
      "ĠMaybe": 2544,
      "Ġsimply": 2545,
      "Please": 2546,
      "Ġflat": 2547,
      "Ġmaster": 2548,
      "Ġgotten": 2549,
      "Ġlive": 2550,
      "Ġswallowed": 2551,
      "Ġpressing": 2552,
      "Ġlowered": 2553,
      "ains": 2554,
      "Ġallowed": 2555,
      "Ġhanging": 2556,
      "Ġoh": 2557,
      "Ġexcite": 2558,
      "Ġexplained": 2559,
      "Ġtall": 2560,
      "anks": 2561,
      "Ġexcept": 2562,
      "Ġdeal": 2563,
      "Ġcross": 2564,
      "son": 2565,
      "rief": 2566,
      "Ġaf": 2567,
      "cious": 2568,
      "ĠGe": 2569,
      "Ġluck": 2570,
      "Ġglad": 2571,
      "Ġresponded": 2572,
      "Ġhoney": 2573,
      "Ġjoin": 2574,
      "ĠYour": 2575,
      "mp": 2576,
      "ĠKaren": 2577,
      "body": 2578,
      "ards": 2579,
      "Ġcomes": 2580,
      "aa": 2581,
      "reat": 2582,
      "Ġcoun": 2583,
      "eling": 2584,
      "Ġtouching": 2585,
      "ottle": 2586,
      "Ġintense": 2587,
      "ĠKelly": 2588,
      "apping": 2589,
      "Ġclearly": 2590,
      "ugged": 2591,
      "Ġboobs": 2592,
      "Ġstrange": 2593,
      "elf": 2594,
      "Ġ10": 2595,
      "Ġloudly": 2596,
      "Ġweight": 2597,
      "ĠPet": 2598,
      "Ġwoke": 2599,
      "miss": 2600,
      "ĠSu": 2601,
      "Ġfat": 2602,
      "nder": 2603,
      "cky": 2604,
      "Ġpul": 2605,
      "Ġsum": 2606,
      "Ġloving": 2607,
      "ĠRachel": 2608,
      "erry": 2609,
      "Ġtremb": 2610,
      "Ġwrist": 2611,
      "iling": 2612,
      "Ġbright": 2613,
      "Ġcamera": 2614,
      "uct": 2615,
      "Ġcatch": 2616,
      "Ġcontact": 2617,
      "Ġbrief": 2618,
      "kend": 2619,
      "Ġsqueezing": 2620,
      "Ġanyway": 2621,
      "what": 2622,
      "Ġbottle": 2623,
      "race": 2624,
      "Ġthank": 2625,
      "Ġdesper": 2626,
      "ĠSome": 2627,
      "nif": 2628,
      "ton": 2629,
      "Ġpol": 2630,
      "Ġlaughing": 2631,
      "âĢ¦âĢ¦": 2632,
      "Ġvi": 2633,
      "ĠFred": 2634,
      "wear": 2635,
      "Ġweekend": 2636,
      "Ġpressure": 2637,
      "\".": 2638,
      "dd": 2639,
      "ĠMichael": 2640,
      "Ġstate": 2641,
      "Ġsensation": 2642,
      "Ġgrowing": 2643,
      "Ġcraw": 2644,
      "ines": 2645,
      "Ġtoy": 2646,
      "Ġwid": 2647,
      "âĢĿ,": 2648,
      "Ġgrip": 2649,
      "Ġcent": 2650,
      "ails": 2651,
      "Ġbeginning": 2652,
      "Ġwip": 2653,
      "Ġmarried": 2654,
      "Ġhaven": 2655,
      "Ġshowing": 2656,
      "Ġclimbed": 2657,
      "Ġcrying": 2658,
      "Ġgrew": 2659,
      "Ġwood": 2660,
      "Ġexcitement": 2661,
      "Ġce": 2662,
      "Ġstayed": 2663,
      "ression": 2664,
      "you": 2665,
      "lle": 2666,
      "Ġsque": 2667,
      "Ġjack": 2668,
      "Ġtill": 2669,
      "astic": 2670,
      "Ġreleased": 2671,
      "Ġ*": 2672,
      "Ġtent": 2673,
      "ters": 2674,
      "Ġfut": 2675,
      "Ġended": 2676,
      "Ġann": 2677,
      "Ġprick": 2678,
      "Ġdeeply": 2679,
      "action": 2680,
      "Ġrepe": 2681,
      "Ġav": 2682,
      "Ġtired": 2683,
      "izz": 2684,
      "Ġpointed": 2685,
      "Ġsense": 2686,
      "anger": 2687,
      "etr": 2688,
      "Ġexposed": 2689,
      "Ġz": 2690,
      "Ġtotally": 2691,
      "acy": 2692,
      "Ġeating": 2693,
      "ĠBecky": 2694,
      "Ġdriving": 2695,
      "Ġdead": 2696,
      "Ġanim": 2697,
      "Ġself": 2698,
      "Ġtend": 2699,
      "Ġbik": 2700,
      "Ġtakes": 2701,
      "ĠJosh": 2702,
      "ishing": 2703,
      "ĠSteve": 2704,
      "Ġank": 2705,
      "ffee": 2706,
      "cum": 2707,
      "rance": 2708,
      "iled": 2709,
      "Ġwand": 2710,
      "vis": 2711,
      "Ġmirror": 2712,
      "Ġconversation": 2713,
      "Ġgroup": 2714,
      "ĠDra": 2715,
      "Ġev": 2716,
      "ĠTr": 2717,
      "Ġride": 2718,
      "AA": 2719,
      "Ġpriv": 2720,
      "Ġunderwear": 2721,
      "Ġcat": 2722,
      "Ġfinish": 2723,
      "Just": 2724,
      "ĠSus": 2725,
      "Ġyours": 2726,
      "Ġbeneath": 2727,
      "Ġcase": 2728,
      "ĠDav": 2729,
      "Ġpour": 2730,
      "Come": 2731,
      "Ġmoments": 2732,
      "Ġasking": 2733,
      "Ġchin": 2734,
      "Ġhanded": 2735,
      "Ġcup": 2736,
      "Ġshocked": 2737,
      "Ġafterno": 2738,
      "Ġpet": 2739,
      "Ġrod": 2740,
      "Ġbigger": 2741,
      "Ġtrans": 2742,
      "aped": 2743,
      "Ġordered": 2744,
      "ollen": 2745,
      "Ġsituation": 2746,
      "Ġasks": 2747,
      "Ġwore": 2748,
      "ĠHo": 2749,
      "ously": 2750,
      "Ġespecially": 2751,
      "Ġbelow": 2752,
      "ube": 2753,
      "Ġdefinitely": 2754,
      "ĠKate": 2755,
      "Ġbeat": 2756,
      "ĠBoth": 2757,
      "uddenly": 2758,
      "Ġtied": 2759,
      "ĠSara": 2760,
      "Ġbutton": 2761,
      "ctor": 2762,
      "Ġjuice": 2763,
      "Ġpregn": 2764,
      "Ġrelation": 2765,
      "Ġign": 2766,
      "Ġcoffee": 2767,
      "Ġcommand": 2768,
      "Ġstream": 2769,
      "Ġswollen": 2770,
      "Ġafternoon": 2771,
      "Ġmassive": 2772,
      "ĠSuddenly": 2773,
      "Ġupon": 2774,
      "Ġhappening": 2775,
      "Ġhoping": 2776,
      "izing": 2777,
      "Ġlab": 2778,
      "ĠLet": 2779,
      "Ġteasing": 2780,
      "Ġgrind": 2781,
      "Ġwish": 2782,
      "Ġappeared": 2783,
      "Ġorder": 2784,
      "Ġrose": 2785,
      "awn": 2786,
      "Ġsides": 2787,
      "Ġpenetr": 2788,
      "Ġty": 2789,
      "iley": 2790,
      "ĠRo": 2791,
      "Ġcrazy": 2792,
      "hood": 2793,
      "Ġsperm": 2794,
      "Ġnumber": 2795,
      "Ġbow": 2796,
      "Ġmovie": 2797,
      "Ġpace": 2798,
      "ading": 2799,
      "ĠBeth": 2800,
      "Ġbreakfast": 2801,
      "Ġvideo": 2802,
      "Let": 2803,
      "Ġknows": 2804,
      "Ġswim": 2805,
      "Ġusually": 2806,
      "ession": 2807,
      "ini": 2808,
      "Ġatte": 2809,
      "Ġlock": 2810,
      "Ġscreaming": 2811,
      "ĠSteph": 2812,
      "Ġgoes": 2813,
      "ĠKe": 2814,
      "Ġclen": 2815,
      "Ġfold": 2816,
      "use": 2817,
      "ĠWill": 2818,
      "ĠKatie": 2819,
      "ĠEmily": 2820,
      "Ġblouse": 2821,
      "Ġfavor": 2822,
      "Ġdoub": 2823,
      "ana": 2824,
      "Ġadv": 2825,
      "acher": 2826,
      "ena": 2827,
      "Ġobviously": 2828,
      "ĠJason": 2829,
      "not": 2830,
      "ern": 2831,
      "Ġwhe": 2832,
      "MM": 2833,
      "outed": 2834,
      "HHHH": 2835,
      "Ġcrack": 2836,
      "Ġthird": 2837,
      "Ġexpected": 2838,
      "Ġempty": 2839,
      "Ġwilling": 2840,
      "Ġglanced": 2841,
      "Ġpaus": 2842,
      "Ġweren": 2843,
      "Ġentrance": 2844,
      "ĠBl": 2845,
      "Ġstore": 2846,
      "Ġcollege": 2847,
      "Ġfigured": 2848,
      "apter": 2849,
      "Ġfresh": 2850,
      "ities": 2851,
      "Ġremembered": 2852,
      "oh": 2853,
      "ĠMiss": 2854,
      "ec": 2855,
      "ient": 2856,
      "Ġblank": 2857,
      "Ġspeed": 2858,
      "ination": 2859,
      "Ġscared": 2860,
      "olog": 2861,
      "Ġfair": 2862,
      "ney": 2863,
      "Ġbas": 2864,
      "Ġresist": 2865,
      "Ġgrun": 2866,
      "tern": 2867,
      "Ġknown": 2868,
      "rand": 2869,
      "ER": 2870,
      "ancing": 2871,
      "IN": 2872,
      "Ġyounger": 2873,
      "raid": 2874,
      "ĠAdam": 2875,
      "Ġsingle": 2876,
      "Ġlunch": 2877,
      "Ġram": 2878,
      "ĠBill": 2879,
      "Ġkisses": 2880,
      "Ġcomfortable": 2881,
      "Ġpiece": 2882,
      "Ġpap": 2883,
      "Ġgras": 2884,
      "Ġhug": 2885,
      "una": 2886,
      "Ġexperien": 2887,
      "Ġ--": 2888,
      "ashing": 2889,
      "Ġroad": 2890,
      "Ġbirth": 2891,
      "Is": 2892,
      "ones": 2893,
      "aron": 2894,
      "for": 2895,
      "manda": 2896,
      "iday": 2897,
      "Ġble": 2898,
      "Ġthrusts": 2899,
      "Ġeff": 2900,
      "Ġsy": 2901,
      "asion": 2902,
      "Ġfinal": 2903,
      "Ġcount": 2904,
      "hhh": 2905,
      "Ġbelt": 2906,
      "Ġmeat": 2907,
      "Ġrelaxed": 2908,
      "ield": 2909,
      "Ġtrouble": 2910,
      "ĠPaul": 2911,
      "io": 2912,
      "gy": 2913,
      "Ġrhy": 2914,
      "aves": 2915,
      "Ġcalm": 2916,
      "cent": 2917,
      "Ġviol": 2918,
      "Ġfil": 2919,
      "Ġkeeping": 2920,
      "Ġapartment": 2921,
      "Ġhowever": 2922,
      "Ġfirmly": 2923,
      "play": 2924,
      "ior": 2925,
      "Ġwine": 2926,
      "thm": 2927,
      "ita": 2928,
      "Ġpumping": 2929,
      "aven": 2930,
      "Ġtells": 2931,
      "Ġgrand": 2932,
      "Ġdamn": 2933,
      "Ġsafe": 2934,
      "Ġrece": 2935,
      "Ġlady": 2936,
      "Ġafraid": 2937,
      "Ġturns": 2938,
      "Ġlaying": 2939,
      "Ġfilling": 2940,
      "come": 2941,
      "haps": 2942,
      "ĠAmanda": 2943,
      "asm": 2944,
      "Ġsupposed": 2945,
      "Ġshr": 2946,
      "Ġlover": 2947,
      "ĠMegan": 2948,
      "ĠLucy": 2949,
      "usted": 2950,
      "Ġneeds": 2951,
      "reen": 2952,
      "Ġdirectly": 2953,
      "Ġmember": 2954,
      "Ġrelease": 2955,
      "Ġpounding": 2956,
      "ility": 2957,
      "Ġsilence": 2958,
      "Ġmad": 2959,
      "Ġworried": 2960,
      "rif": 2961,
      "ait": 2962,
      "Ġsensitive": 2963,
      "Ġpictures": 2964,
      "Ġrhythm": 2965,
      "ork": 2966,
      "Ġproper": 2967,
      "ette": 2968,
      "ĠDavid": 2969,
      "ĠTH": 2970,
      "oooo": 2971,
      "Ġrequ": 2972,
      "mma": 2973,
      "Ġsudden": 2974,
      "Ġsleeping": 2975,
      "ĠOur": 2976,
      "br": 2977,
      "Ġfemale": 2978,
      "ĠAg": 2979,
      "Ġscr": 2980,
      "Ġconfused": 2981,
      "Ġincredible": 2982,
      "Ġusual": 2983,
      "ining": 2984,
      "Ġpowerful": 2985,
      "ĠSoon": 2986,
      "Ġslapped": 2987,
      "Ġpal": 2988,
      "ĠOr": 2989,
      "Ġ7": 2990,
      "ĠAr": 2991,
      "Ġupstairs": 2992,
      "Ġeight": 2993,
      "Ġsometimes": 2994,
      "mmmm": 2995,
      "ope": 2996,
      "inda": 2997,
      "Ġburst": 2998,
      "Ġpresent": 2999,
      "Thank": 3000,
      "Ġple": 3001,
      "Ġahead": 3002,
      "Ġwalls": 3003,
      "ixed": 3004,
      "ls": 3005,
      "Ġthemselves": 3006,
      "Ġorgasms": 3007,
      "top": 3008,
      "Ġones": 3009,
      "Ġpregnant": 3010,
      "Ġpack": 3011,
      "Ġrelationship": 3012,
      "OU": 3013,
      "ĠJulie": 3014,
      "Ġlub": 3015,
      "Ġeffort": 3016,
      "Ġgrabbing": 3017,
      "ortun": 3018,
      "Ġhugged": 3019,
      "ises": 3020,
      "Ġconv": 3021,
      "Ġcho": 3022,
      "reme": 3023,
      "Ġec": 3024,
      "ĠEd": 3025,
      "Ġswell": 3026,
      "Ġslammed": 3027,
      "ĠCarol": 3028,
      "ĠOf": 3029,
      "Ġtruck": 3030,
      "onse": 3031,
      "ha": 3032,
      "Ġgreen": 3033,
      "covered": 3034,
      "ffect": 3035,
      "Ġsuit": 3036,
      "Ġserious": 3037,
      "Ġbeer": 3038,
      "Ġcaused": 3039,
      "ĠBo": 3040,
      "Ġknelt": 3041,
      "Ġweak": 3042,
      "ĠAngel": 3043,
      "Ġremind": 3044,
      "uttered": 3045,
      "Ġagree": 3046,
      "shirt": 3047,
      "irst": 3048,
      "Ġdrunk": 3049,
      "Ġfacing": 3050,
      "Ġhonest": 3051,
      "icking": 3052,
      "ber": 3053,
      "the": 3054,
      "Ġtone": 3055,
      "Ġpromise": 3056,
      "Ġshouted": 3057,
      "olute": 3058,
      "ĠAlice": 3059,
      "Ġfollow": 3060,
      "iam": 3061,
      "Ġlie": 3062,
      "Ġseems": 3063,
      "Ġgar": 3064,
      "Ġloose": 3065,
      "Ġanus": 3066,
      "Ġsna": 3067,
      "ring": 3068,
      "ella": 3069,
      "Ġdemand": 3070,
      "Ġextra": 3071,
      "Ġaren": 3072,
      "bo": 3073,
      "Ġconst": 3074,
      "Ġfeelings": 3075,
      "Ġtwenty": 3076,
      "Ġhoped": 3077,
      "Ġinner": 3078,
      "Ok": 3079,
      "ĠDave": 3080,
      "Ġreco": 3081,
      "Ġmoist": 3082,
      "pite": 3083,
      "Ġsummer": 3084,
      "itched": 3085,
      "ĠLy": 3086,
      "Ġaroused": 3087,
      "Ġseed": 3088,
      "Ġoffered": 3089,
      "Ġhuman": 3090,
      "Ġwash": 3091,
      "Ġresponse": 3092,
      "Ġloc": 3093,
      "lud": 3094,
      "Ġcertainly": 3095,
      "ots": 3096,
      "Ġshar": 3097,
      "upid": 3098,
      "Ġpan": 3099,
      "mit": 3100,
      "Ġeventually": 3101,
      "Ġslip": 3102,
      "Ġsigh": 3103,
      "Ġcollaps": 3104,
      "set": 3105,
      "Ġbook": 3106,
      "Ġpulls": 3107,
      "Ġkey": 3108,
      "Ġboxers": 3109,
      "Ġpicture": 3110,
      "Ġtoss": 3111,
      "Ġstreet": 3112,
      "Ġtest": 3113,
      "Ã©": 3114,
      "Ġeffect": 3115,
      "Ġleather": 3116,
      "Ġbother": 3117,
      "Ġmusic": 3118,
      "upted": 3119,
      "Ġdance": 3120,
      "Ġ8": 3121,
      "ĠTw": 3122,
      "Ġwondering": 3123,
      "ĠTV": 3124,
      "Ġshape": 3125,
      "gging": 3126,
      "ĠHowever": 3127,
      "like": 3128,
      "Ġgripped": 3129,
      "Ġcrow": 3130,
      "Ġadj": 3131,
      "Ġprof": 3132,
      "Ġserv": 3133,
      "Ġworth": 3134,
      "ma": 3135,
      "Ġanal": 3136,
      "iche": 3137,
      "Ġbusy": 3138,
      "Ġlovely": 3139,
      "ries": 3140,
      "ĠFrank": 3141,
      "Ġve": 3142,
      "Ġmeeting": 3143,
      "Ġgorge": 3144,
      "Ġteacher": 3145,
      "Ġdate": 3146,
      "Ġinstru": 3147,
      "Ġhide": 3148,
      "Ġtens": 3149,
      "Ġspit": 3150,
      "~~~~~~~~": 3151,
      "Ġlouder": 3152,
      "Ġtruth": 3153,
      "Ġthong": 3154,
      "umed": 3155,
      "Ġmod": 3156,
      "Ġalthough": 3157,
      "ĠEll": 3158,
      "inging": 3159,
      "ĠDani": 3160,
      "ume": 3161,
      "nifer": 3162,
      "ceed": 3163,
      "Ġbikini": 3164,
      "Ġwhisper": 3165,
      "Ġecst": 3166,
      "Ġsemen": 3167,
      "ative": 3168,
      "Ġantic": 3169,
      "athy": 3170,
      "?âĢĻ": 3171,
      "Your": 3172,
      "Ġfond": 3173,
      "Ġsus": 3174,
      "Ġtwice": 3175,
      "Ġexpression": 3176,
      "job": 3177,
      "Ġsuggested": 3178,
      "Ġpartic": 3179,
      "ĠHolly": 3180,
      "ants": 3181,
      "Ġgorgeous": 3182,
      "Ġhandle": 3183,
      "Ġpaused": 3184,
      "Ġforget": 3185,
      "Ġnatur": 3186,
      "Ġmention": 3187,
      "There": 3188,
      "issa": 3189,
      "Ġtrust": 3190,
      "Ġforcing": 3191,
      "Ġextreme": 3192,
      "nn": 3193,
      "laire": 3194,
      "Ġstor": 3195,
      "Ġhy": 3196,
      "Ġinstantly": 3197,
      "Ġclub": 3198,
      "Ġsmir": 3199,
      "res": 3200,
      "Ġamount": 3201,
      "Ġgaze": 3202,
      "Ġdeath": 3203,
      "Ġcab": 3204,
      "Ġfollowing": 3205,
      "ĠMistress": 3206,
      "Ġshoes": 3207,
      "Ġgy": 3208,
      "ĠLaur": 3209,
      "aching": 3210,
      "ilet": 3211,
      "Ġreaching": 3212,
      "ĠKay": 3213,
      "Ġwake": 3214,
      "Ġbeach": 3215,
      "Ġexcla": 3216,
      "ĠJon": 3217,
      "Ġcarefully": 3218,
      "ĠJennifer": 3219,
      "rodu": 3220,
      "ĠBar": 3221,
      "Ġinvol": 3222,
      "osing": 3223,
      "Ġankles": 3224,
      "roud": 3225,
      "EE": 3226,
      "cle": 3227,
      "Ġcleaned": 3228,
      "uid": 3229,
      "Ġswallow": 3230,
      "Ġstrokes": 3231,
      "neath": 3232,
      "lled": 3233,
      "ĠCon": 3234,
      "Ġobvious": 3235,
      "Ġlearn": 3236,
      "Ġtasted": 3237,
      "Can": 3238,
      "fa": 3239,
      "gr": 3240,
      "Ġshiver": 3241,
      "Ġmale": 3242,
      "hys": 3243,
      "ĠAgain": 3244,
      "Ġsqueeze": 3245,
      "let": 3246,
      "Ġtick": 3247,
      "Ġteam": 3248,
      "Ġsear": 3249,
      "uter": 3250,
      "Ġstupid": 3251,
      "aj": 3252,
      "Ġgather": 3253,
      "ĠClaire": 3254,
      "ĠDid": 3255,
      "Ġdisappo": 3256,
      "Ġcapt": 3257,
      "ote": 3258,
      "Ġflood": 3259,
      "--------------------------------": 3260,
      "Ġbend": 3261,
      "ĠAny": 3262,
      "Ġfist": 3263,
      "Ġanticip": 3264,
      "Ġsir": 3265,
      "Did": 3266,
      "ars": 3267,
      "Ġtender": 3268,
      "Ġsett": 3269,
      "Ġpumped": 3270,
      "Ġstradd": 3271,
      "orted": 3272,
      "mpt": 3273,
      "Ġsad": 3274,
      "teen": 3275,
      "Ġweird": 3276,
      "ighb": 3277,
      "Ġporn": 3278,
      "ĠEv": 3279,
      "ĠJeff": 3280,
      "UCK": 3281,
      "Ġproud": 3282,
      "hile": 3283,
      "Ġpop": 3284,
      "Ġappre": 3285,
      "Ġwave": 3286,
      "Ġlad": 3287,
      "ĠBob": 3288,
      "Sh": 3289,
      "Ġfro": 3290,
      "Ġarse": 3291,
      "Ġfalling": 3292,
      "Ġchildren": 3293,
      "inct": 3294,
      "Ġleaning": 3295,
      "ĠLuna": 3296,
      "ball": 3297,
      "fuck": 3298,
      "Ġunderneath": 3299,
      "Ġaware": 3300,
      "mi": 3301,
      "ending": 3302,
      "Ġquestions": 3303,
      "ĠInst": 3304,
      "ances": 3305,
      "Ġsisters": 3306,
      "ĠGeorge": 3307,
      "inting": 3308,
      "Ġneighb": 3309,
      "Ġmain": 3310,
      "ĠWithout": 3311,
      "Ġcas": 3312,
      "rist": 3313,
      "Ġchuckled": 3314,
      "Ġoccasion": 3315,
      "ĠSomet": 3316,
      "lic": 3317,
      "Ġfif": 3318,
      "Ġperfectly": 3319,
      "otic": 3320,
      "Ġgrad": 3321,
      "Ġmilk": 3322,
      "Ġimport": 3323,
      "Ġallow": 3324,
      "Ġwigg": 3325,
      "Ġlevel": 3326,
      "Ġphot": 3327,
      "Ġate": 3328,
      "Ġrealize": 3329,
      "Ġrepeated": 3330,
      "Ġ9": 3331,
      "Ġfly": 3332,
      "Ġgasp": 3333,
      "cl": 3334,
      "Ġpubic": 3335,
      "Ġpanting": 3336,
      "Ġstock": 3337,
      "ĠLike": 3338,
      "idden": 3339,
      "oph": 3340,
      "ĠRich": 3341,
      "Ġchoice": 3342,
      "light": 3343,
      "Ġchat": 3344,
      "Ġcarry": 3345,
      "Ġlearned": 3346,
      "Ġstare": 3347,
      "Ġabsolute": 3348,
      "Ġdoubt": 3349,
      "Ġjoined": 3350,
      "Ġlose": 3351,
      "yan": 3352,
      "Ġtreat": 3353,
      "Ġshare": 3354,
      "uly": 3355,
      "Ġfantas": 3356,
      "ĠScott": 3357,
      "Ġreading": 3358,
      "Ġnaught": 3359,
      "Ġinno": 3360,
      "Ġsore": 3361,
      "rian": 3362,
      "agg": 3363,
      "Ġsed": 3364,
      "ived": 3365,
      "Ġshuddered": 3366,
      "ĠSir": 3367,
      "Ġobs": 3368,
      "Ġheels": 3369,
      "ĠMiche": 3370,
      "Ġstreng": 3371,
      "ages": 3372,
      "idly": 3373,
      "Ġtrip": 3374,
      "\",": 3375,
      "Ġcarried": 3376,
      "ndred": 3377,
      "Ġsofa": 3378,
      "cri": 3379,
      "Ġmassage": 3380,
      "ital": 3381,
      "ety": 3382,
      "Ġapproached": 3383,
      "eled": 3384,
      "Ġsteps": 3385,
      "Ġden": 3386,
      "ĠAunt": 3387,
      "Ġworse": 3388,
      "Ġ20": 3389,
      "Ġmot": 3390,
      "Ġembarrassed": 3391,
      "Ġrelief": 3392,
      "Ġhotel": 3393,
      "ĠMax": 3394,
      "pless": 3395,
      "Ġlift": 3396,
      "cca": 3397,
      "Ġappear": 3398,
      "Ġtoilet": 3399,
      "Ġhungry": 3400,
      "uu": 3401,
      "utter": 3402,
      "Ġprev": 3403,
      "ĠTheir": 3404,
      "Ġdisg": 3405,
      "Ġanimal": 3406,
      "ĠMad": 3407,
      "Ġenter": 3408,
      "========": 3409,
      "Ġener": 3410,
      "Ġcollapsed": 3411,
      "ancy": 3412,
      "Ġbecoming": 3413,
      "Ġcompany": 3414,
      "****************": 3415,
      "Ġcoo": 3416,
      "imul": 3417,
      "Ġopportun": 3418,
      "ault": 3419,
      "Ġaside": 3420,
      "ĠAb": 3421,
      "Ġdisc": 3422,
      "ĠFrom": 3423,
      "Ġexplain": 3424,
      "ued": 3425,
      "Ġaction": 3426,
      "Ġdiff": 3427,
      "Ġcovering": 3428,
      "ayed": 3429,
      "Ġphys": 3430,
      "iliar": 3431,
      "ĠStephanie": 3432,
      "ĠHel": 3433,
      "ĠEmma": 3434,
      "Ġwel": 3435,
      "Ġsoaked": 3436,
      "Ġears": 3437,
      "Ġscreen": 3438,
      "ĠSusan": 3439,
      "Ġtub": 3440,
      "par": 3441,
      "Ġshake": 3442,
      "Ġdrew": 3443,
      "Ġpaper": 3444,
      "Ġshy": 3445,
      "Ġbringing": 3446,
      "Ġjerked": 3447,
      "ĠX": 3448,
      "Ġexclaimed": 3449,
      "Ġrobe": 3450,
      "ustr": 3451,
      "Ġsav": 3452,
      "Ġvisit": 3453,
      "Ġangry": 3454,
      "Ġreply": 3455,
      "Ġliqu": 3456,
      "Ġmound": 3457,
      "anked": 3458,
      "Ġstun": 3459,
      "Sure": 3460,
      "arently": 3461,
      "Ġfab": 3462,
      "Ġsand": 3463,
      "Ġdrinks": 3464,
      "Ġhundred": 3465,
      "Ġinterested": 3466,
      "ald": 3467,
      "Ġforever": 3468,
      "Ġimagine": 3469,
      "Ġpunish": 3470,
      "rence": 3471,
      "Ġcomment": 3472,
      "ĠDraco": 3473,
      "andra": 3474,
      "Ġblock": 3475,
      "Ġpopped": 3476,
      "ĠBilly": 3477,
      "They": 3478,
      "Ġdownstairs": 3479,
      "oura": 3480,
      "Ġpock": 3481,
      "Ġdear": 3482,
      "Ġdoll": 3483,
      "...âĢĿ": 3484,
      "Ġdar": 3485,
      "Ġrevealing": 3486,
      "Ġstrength": 3487,
      "Ġexam": 3488,
      "Ġfocus": 3489,
      "Ġitself": 3490,
      "line": 3491,
      "ses": 3492,
      "Ġwithd": 3493,
      "ĠHeather": 3494,
      "oss": 3495,
      "owly": 3496,
      "Ġsomehow": 3497,
      "Ġ&": 3498,
      "Ġfinding": 3499,
      "Ġnaughty": 3500,
      "Ġpost": 3501,
      "Ġmater": 3502,
      "ĠRyan": 3503,
      "Ġsuper": 3504,
      "Ġlights": 3505,
      "Ġsurround": 3506,
      "Ġstimul": 3507,
      "Ġbrain": 3508,
      "Ġdisplay": 3509,
      "inger": 3510,
      "Ġunable": 3511,
      "mmm": 3512,
      "Ġrecogn": 3513,
      "ience": 3514,
      "Ġremained": 3515,
      "Ġintrodu": 3516,
      "Ġplaces": 3517,
      "ĠWas": 3518,
      "Ġpot": 3519,
      "Ġdiscus": 3520,
      "Ġknee": 3521,
      "Ġwrit": 3522,
      "ĠAre": 3523,
      "Ġecstasy": 3524,
      "ES": 3525,
      "ĠAnna": 3526,
      "Ġgener": 3527,
      "ĠStill": 3528,
      "Ġblowjob": 3529,
      "Ġmeans": 3530,
      "she": 3531,
      "Ġgroan": 3532,
      "ĠSe": 3533,
      "Ġsilent": 3534,
      "Ġdiffic": 3535,
      "que": 3536,
      "ĠNic": 3537,
      "Ġsick": 3538,
      "Ġnoise": 3539,
      "yond": 3540,
      "Ġbegged": 3541,
      "fit": 3542,
      "Ġmovement": 3543,
      "acks": 3544,
      "Ġnude": 3545,
      "Ġgold": 3546,
      "inc": 3547,
      "Ġdelicious": 3548,
      "Ġprov": 3549,
      "Ġshif": 3550,
      "Ġcol": 3551,
      "Ġglist": 3552,
      "Ġcous": 3553,
      "Ġpaid": 3554,
      "Ġquiver": 3555,
      "Ġcell": 3556,
      "Ġdam": 3557,
      "EA": 3558,
      "Ġbought": 3559,
      "Ġsounded": 3560,
      "Ġcrawled": 3561,
      "ixt": 3562,
      "Ġmassaging": 3563,
      "Ġgrunted": 3564,
      "Ġwashed": 3565,
      "kward": 3566,
      "Ġparted": 3567,
      "velop": 3568,
      "Ġequ": 3569,
      "illed": 3570,
      "Ġteased": 3571,
      "Ġresting": 3572,
      "Ġsending": 3573,
      "Ġdrinking": 3574,
      "Ġpillow": 3575,
      "Ġflow": 3576,
      "fer": 3577,
      "sal": 3578,
      "ĠNick": 3579,
      "ummy": 3580,
      "Ġmis": 3581,
      "Ġfantasy": 3582,
      "ING": 3583,
      "Ġcrowd": 3584,
      "Ġsomewhere": 3585,
      "Ġsnapped": 3586,
      "ĠLooking": 3587,
      "zen": 3588,
      "oris": 3589,
      "ĠMay": 3590,
      "aturday": 3591,
      "rick": 3592,
      "Ġstrip": 3593,
      "Ġsucc": 3594,
      "Ġappreci": 3595,
      "Ġfluid": 3596,
      "Ġriding": 3597,
      "Ġsettled": 3598,
      "ibb": 3599,
      "Ġhorse": 3600,
      "ĠDanny": 3601,
      "Ġcomputer": 3602,
      "bbie": 3603,
      "Ġtruly": 3604,
      "annah": 3605,
      "ĠSlowly": 3606,
      "ĠGr": 3607,
      "Ġsol": 3608,
      "Ġawkward": 3609,
      "Ġpersonal": 3610,
      "form": 3611,
      "iva": 3612,
      "ĠSaturday": 3613,
      ",âĢĻ": 3614,
      "Ġallowing": 3615,
      "Ġuncom": 3616,
      "Ġwhimpered": 3617,
      "isting": 3618,
      "Ġnone": 3619,
      "Ġmaterial": 3620,
      ".'": 3621,
      "Ġlived": 3622,
      "Ġplanned": 3623,
      "ĠMichelle": 3624,
      "Ġbeyond": 3625,
      "ĠChapter": 3626,
      "Ġattract": 3627,
      "Ġtan": 3628,
      "ask": 3629,
      "Ġpure": 3630,
      "ges": 3631,
      "enny": 3632,
      "Ġhar": 3633,
      "ĠFriday": 3634,
      "Ġopportunity": 3635,
      "pri": 3636,
      "Ġbroken": 3637,
      "Ġlucky": 3638,
      "Ġplung": 3639,
      "austed": 3640,
      "Ġshouldn": 3641,
      "Ġcounter": 3642,
      "Ġcondom": 3643,
      "Ġshooting": 3644,
      "Ġvan": 3645,
      "Ġholes": 3646,
      "ĠJoe": 3647,
      "ĠJanet": 3648,
      "ĠNat": 3649,
      "Ġcamp": 3650,
      "Ġheaven": 3651,
      "Ġheavily": 3652,
      "Ġblind": 3653,
      "time": 3654,
      "Ġprivate": 3655,
      "Ġfaces": 3656,
      "ĠAm": 3657,
      "Ġmed": 3658,
      "Ġgrinding": 3659,
      "Ġsatisfied": 3660,
      "Ġtwisted": 3661,
      "Ġbuilt": 3662,
      "Ġcollar": 3663,
      "uzz": 3664,
      "Ġhearing": 3665,
      "Ġpleased": 3666,
      "Ġlube": 3667,
      "ulf": 3668,
      "inal": 3669,
      "Ġfamiliar": 3670,
      "Ġir": 3671,
      "Ġvibrator": 3672,
      "Ġarousal": 3673,
      "Ġrolling": 3674,
      "Ġmissed": 3675,
      "Ġfavorite": 3676,
      "bus": 3677,
      "ĠJam": 3678,
      "Ġaunt": 3679,
      "Ġbegging": 3680,
      "Ġgreet": 3681,
      "Ġuns": 3682,
      "Ġrid": 3683,
      "ĠSoph": 3684,
      "Ġsou": 3685,
      "Ġremove": 3686,
      "Ġarched": 3687,
      "Ġshared": 3688,
      "land": 3689,
      "Ġtext": 3690,
      "Ġtongues": 3691,
      "oc": 3692,
      "Ġenergy": 3693,
      "Ġaccept": 3694,
      "icing": 3695,
      "Ġshall": 3696,
      "Ġstrap": 3697,
      "Ġencoura": 3698,
      "ĠRiley": 3699,
      "ww": 3700,
      "ench": 3701,
      "Ġmur": 3702,
      "ĠLaura": 3703,
      "Ġextremely": 3704,
      "Ġshrugged": 3705,
      "Ġimportant": 3706,
      "ĠEric": 3707,
      "entr": 3708,
      "Ġoffer": 3709,
      "racted": 3710,
      "rible": 3711,
      "Ġdouble": 3712,
      "eless": 3713,
      "thy": 3714,
      "Ġsway": 3715,
      "Ġshaved": 3716,
      "Ġproceed": 3717,
      "Ġlubric": 3718,
      "Ġfle": 3719,
      "Ġprocess": 3720,
      "Ġblushed": 3721,
      "Ġelect": 3722,
      "Ġways": 3723,
      "Ġbegins": 3724,
      "Ġguided": 3725,
      "Ġexperienced": 3726,
      "Ġavo": 3727,
      "Ġdeser": 3728,
      "Ġdirection": 3729,
      "Ġhallway": 3730,
      "Ġjaw": 3731,
      "Ġconne": 3732,
      "Ġfabric": 3733,
      "Ġstruggled": 3734,
      "Ġdie": 3735,
      "ĠSee": 3736,
      "aby": 3737,
      "Ġattempt": 3738,
      "ĠTina": 3739,
      "Ġaccess": 3740,
      "Ġspo": 3741,
      "Ġhig": 3742,
      "Ġtoes": 3743,
      "ĠTim": 3744,
      "Ġclothing": 3745,
      "Wow": 3746,
      "Ġwomb": 3747,
      "Ġscene": 3748,
      "Ġdom": 3749,
      "Then": 3750,
      "ĠCan": 3751,
      "Ġstretching": 3752,
      "Ġting": 3753,
      "Ġknot": 3754,
      "oned": 3755,
      "Ġmostly": 3756,
      "Ġimagined": 3757,
      "Ġmer": 3758,
      "Ġspreading": 3759,
      "Ġsmiles": 3760,
      "ĠTwo": 3761,
      "ppy": 3762,
      "!âĢĻ": 3763,
      "Ġsepar": 3764,
      "Ġsticking": 3765,
      "pted": 3766,
      "Ġcaressing": 3767,
      "Ġliquid": 3768,
      "ĠBarb": 3769,
      "Ġstudents": 3770,
      "Ġclam": 3771,
      "ĠJane": 3772,
      "ives": 3773,
      "Ġconcentr": 3774,
      "Ġreaction": 3775,
      "Ġpointing": 3776,
      "Ġrope": 3777,
      "Ġinclud": 3778,
      "________________": 3779,
      "usion": 3780,
      "Ġsharp": 3781,
      "Ġprodu": 3782,
      "Ġcomb": 3783,
      "ĠPat": 3784,
      "Ġexhausted": 3785,
      "Hi": 3786,
      "Ġtrain": 3787,
      "Ġcalling": 3788,
      "Ġbulge": 3789,
      "ĠJill": 3790,
      "Ġhate": 3791,
      "Ġdoctor": 3792,
      "Ġfrustr": 3793,
      "Ġrested": 3794,
      "Ġswirl": 3795,
      "Ġburning": 3796,
      "Ġmagic": 3797,
      "Ġjerking": 3798,
      "Ġguard": 3799,
      "Ġcenter": 3800,
      "osp": 3801,
      "ented": 3802,
      "ĠDar": 3803,
      "ĠLiz": 3804,
      "Ġdoors": 3805,
      "ĠPro": 3806,
      "Ġmonster": 3807,
      "Ġband": 3808,
      "Ġchecked": 3809,
      "Ġvar": 3810,
      "ĠPh": 3811,
      "Al": 3812,
      "LL": 3813,
      "Ġfunny": 3814,
      "Ġnote": 3815,
      "ĠDian": 3816,
      "Ġexposing": 3817,
      "Ġbound": 3818,
      "Ġpocket": 3819,
      "lessly": 3820,
      "Ġexploded": 3821,
      "iving": 3822,
      "Ġsne": 3823,
      "Ġrealised": 3824,
      "val": 3825,
      "ggy": 3826,
      "ĠYOU": 3827,
      "Ġbum": 3828,
      "Ġstir": 3829,
      "Ġaud": 3830,
      "idence": 3831,
      "Ġhardly": 3832,
      "Ġwarmth": 3833,
      "Ġroughly": 3834,
      "Ġbouncing": 3835,
      "ĠRick": 3836,
      "anged": 3837,
      "Maybe": 3838,
      "Ġslim": 3839,
      "Ġsimple": 3840,
      "Ġnews": 3841,
      "Of": 3842,
      "Ġ15": 3843,
      "Ġhumili": 3844,
      "Ġnur": 3845,
      "Ġnatural": 3846,
      "Ġcity": 3847,
      "esome": 3848,
      "Ġbuy": 3849,
      "Ġladies": 3850,
      ").": 3851,
      "Ġaccom": 3852,
      "Ġdest": 3853,
      "Ġwrists": 3854,
      "Ġsuff": 3855,
      "Ġbeauty": 3856,
      "Ġsaliva": 3857,
      "ĠCharl": 3858,
      "Ġescape": 3859,
      "anking": 3860,
      "Ġsoaking": 3861,
      "Ġanticipation": 3862,
      "ĠInstead": 3863,
      "Ġabsolutely": 3864,
      "Ġdisappeared": 3865,
      "Ġcrossed": 3866,
      "Ġclitoris": 3867,
      "ilar": 3868,
      "Ġscreams": 3869,
      "Ġcop": 3870,
      "Ġcaressed": 3871,
      "Ġbirthday": 3872,
      "Ġsticky": 3873,
      "Re": 3874,
      "Ġupper": 3875,
      "Ġcheer": 3876,
      "Ġslept": 3877,
      "Get": 3878,
      "Ġhelping": 3879,
      "Ġfeed": 3880,
      "arily": 3881,
      "oof": 3882,
      "Ġthanks": 3883,
      "Ġanger": 3884,
      "Ġdue": 3885,
      "ĠSharon": 3886,
      "ĠNicole": 3887,
      "eed": 3888,
      "Ġblanket": 3889,
      "ĠOK": 3890,
      "Ġforehead": 3891,
      "ĠFUCK": 3892,
      "Ġclenched": 3893,
      "ĠEach": 3894,
      "Who": 3895,
      "rill": 3896,
      "Ġbal": 3897,
      "mission": 3898,
      "now": 3899,
      "Ġmist": 3900,
      "Ġripped": 3901,
      "Ġwanna": 3902,
      "Ġshop": 3903,
      "ĠBet": 3904,
      "Ġtrembling": 3905,
      "Ġperhaps": 3906,
      "Ġtrail": 3907,
      "Ġwhether": 3908,
      "work": 3909,
      "Ġknocked": 3910,
      "Ġcause": 3911,
      ".....": 3912,
      "Ġcareful": 3913,
      "Ġfuture": 3914,
      "Ġplenty": 3915,
      "ĠThank": 3916,
      "Ġpoor": 3917,
      "ila": 3918,
      "ĠSp": 3919,
      "Ġlabia": 3920,
      "Ġwhenever": 3921,
      "Ġpoured": 3922,
      "Ġdiv": 3923,
      "Ġstories": 3924,
      "Ġwed": 3925,
      "Sorry": 3926,
      "Ġattack": 3927,
      "Ġapolog": 3928,
      "Ġdifficult": 3929,
      "Ġkicked": 3930,
      "Ġsteady": 3931,
      "Ġgun": 3932,
      "Ġspace": 3933,
      "Ġannoun": 3934,
      "Ġlives": 3935,
      "Ġerotic": 3936,
      "Ġrush": 3937,
      "Ġslapping": 3938,
      "Ġstopping": 3939,
      "Ġsink": 3940,
      "Ġwetness": 3941,
      "Ġdescri": 3942,
      "Ġtraining": 3943,
      "Thanks": 3944,
      "ĠTra": 3945,
      "ĠRose": 3946,
      "Ġdied": 3947,
      "Ġguest": 3948,
      "Ġmach": 3949,
      "âĢľ": 3950,
      "ĠAnother": 3951,
      "Ġice": 3952,
      "eeee": 3953,
      "ĠKrist": 3954,
      "ĠJac": 3955,
      "Ġ18": 3956,
      "Ġlean": 3957,
      "Ġjoy": 3958,
      "Ġprepared": 3959,
      "Ġgym": 3960,
      "Ġknife": 3961,
      "icy": 3962,
      "Ġtease": 3963,
      "aming": 3964,
      "che": 3965,
      "ially": 3966,
      "ĠLinda": 3967,
      "ĠMolly": 3968,
      "ta": 3969,
      "Ġunb": 3970,
      "Ġbull": 3971,
      "imp": 3972,
      "ific": 3973,
      "Ġvol": 3974,
      "well": 3975,
      "ĠQu": 3976,
      "omed": 3977,
      "Ġrang": 3978,
      "Ġdancing": 3979,
      "ĠMaria": 3980,
      "button": 3981,
      "Ġplans": 3982,
      "Ġsomewhat": 3983,
      "Ġaff": 3984,
      "Ġlets": 3985,
      "Ġjerk": 3986,
      "Ġtort": 3987,
      "Ġgrowled": 3988,
      "Ġslap": 3989,
      "Ġstripped": 3990,
      "ĠDen": 3991,
      "Ġwiped": 3992,
      "ĠAlbus": 3993,
      "Ġinstinct": 3994,
      "uh": 3995,
      "ĠPeter": 3996,
      "ĠLily": 3997,
      "Ġrape": 3998,
      "Ġbliss": 3999,
      "ĠPl": 4000,
      "Ġclosing": 4001,
      "aping": 4002,
      "Ġheading": 4003,
      "Where": 4004,
      "Ġmel": 4005,
      "ooked": 4006,
      "ĠSally": 4007,
      "ption": 4008,
      "uel": 4009,
      "Ġarr": 4010,
      "Ġ=": 4011,
      "Ġawake": 4012,
      "ĠSince": 4013,
      "Ġbite": 4014,
      "Ġbrushed": 4015,
      "Ġgrunt": 4016,
      "Ġslick": 4017,
      "Ġcleaning": 4018,
      "Ġtail": 4019,
      "Ġboss": 4020,
      "ĠHannah": 4021,
      "Ġtossed": 4022,
      "St": 4023,
      "ĠGab": 4024,
      "Ġscent": 4025,
      "ĠTiff": 4026,
      "Ġmuff": 4027,
      "Ġoffic": 4028,
      "terday": 4029,
      "Ġoo": 4030,
      "Ġdecide": 4031,
      "Ġshame": 4032,
      "Ġpale": 4033,
      "Ġrelie": 4034,
      "ivers": 4035,
      "Ġtype": 4036,
      "ics": 4037,
      "!!!": 4038,
      "Ġintim": 4039,
      "Look": 4040,
      "gest": 4041,
      "Ġpolice": 4042,
      "Ġodd": 4043,
      "Ġprotect": 4044,
      "lyn": 4045,
      "ts": 4046,
      "antha": 4047,
      "Ġdrag": 4048,
      "aying": 4049,
      "................": 4050,
      "Ġspell": 4051,
      "Ġacce": 4052,
      "Ġupset": 4053,
      "acul": 4054,
      "Ġcast": 4055,
      "Ġdesperately": 4056,
      "anda": 4057,
      "rid": 4058,
      "Ġner": 4059,
      "ĠJay": 4060,
      "Ã©la": 4061,
      "ĠMir": 4062,
      "Ġsupport": 4063,
      "Ġattractive": 4064,
      "Ġhigher": 4065,
      "Ġfoc": 4066,
      "Ġtree": 4067,
      "Ġflowing": 4068,
      "Hell": 4069,
      "Ġbell": 4070,
      "Ġrushed": 4071,
      "Ġalright": 4072,
      "Ġinform": 4073,
      "When": 4074,
      "Ġthreat": 4075,
      "usting": 4076,
      "ĠGet": 4077,
      "ius": 4078,
      "ailed": 4079,
      "Ġarg": 4080,
      "Ġfocused": 4081,
      "Ġlaw": 4082,
      "Ġeasier": 4083,
      "Ġprevious": 4084,
      "Ġincreased": 4085,
      "Ġinser": 4086,
      "Ġhitting": 4087,
      "ĠBÃ©la": 4088,
      "pose": 4089,
      "ron": 4090,
      "ĠSandy": 4091,
      "ĠAnn": 4092,
      "Ġconcer": 4093,
      "Ġspurt": 4094,
      "gress": 4095,
      "Ġill": 4096,
      "Ġbon": 4097,
      "aches": 4098,
      "de": 4099,
      "Ġlimp": 4100,
      "Ġsuggest": 4101,
      "ĠSamantha": 4102,
      "ĠSue": 4103,
      "Ġdanger": 4104,
      "ĠOl": 4105,
      "Ġlisten": 4106,
      "Ġoppos": 4107,
      "Ġcousin": 4108,
      "Ġmum": 4109,
      "Mom": 4110,
      "lyss": 4111,
      "go": 4112,
      "Ġspas": 4113,
      "Ġpump": 4114,
      "Ġrul": 4115,
      "Ġdare": 4116,
      "Ġmessage": 4117,
      "Ġunz": 4118,
      "Ġlifting": 4119,
      "ĠRichard": 4120,
      "Ġpromised": 4121,
      "ision": 4122,
      "Ġconvul": 4123,
      "ĠTony": 4124,
      "Ġloves": 4125,
      "Ġslur": 4126,
      "Ġjump": 4127,
      "ĠJustin": 4128,
      "Ġbreathe": 4129,
      "Ġdepth": 4130,
      "ĠDes": 4131,
      "ĠSm": 4132,
      "Ġstage": 4133,
      "ĠMal": 4134,
      "Ġsheets": 4135,
      "Ġdriver": 4136,
      "God": 4137,
      "bey": 4138,
      "Ġvirginity": 4139,
      "ĠKevin": 4140,
      "Ġpel": 4141,
      "Ġpositioned": 4142,
      "ĠLuke": 4143,
      "Ġdrank": 4144,
      "Ġgives": 4145,
      "Ġlikes": 4146,
      "AT": 4147,
      "ĠKyle": 4148,
      "Ġunderstood": 4149,
      "Ġtighter": 4150,
      "ills": 4151,
      "ĠNO": 4152,
      "Ġcabin": 4153,
      "Ġrubb": 4154,
      "uous": 4155,
      "Ġdespite": 4156,
      "Ġuncomfortable": 4157,
      "Ġlistening": 4158,
      "Ġpublic": 4159,
      "âĢŃ": 4160,
      "Ġpath": 4161,
      "Ġnor": 4162,
      "||": 4163,
      "elle": 4164,
      "Ġcovers": 4165,
      "ĠBrad": 4166,
      "zing": 4167,
      "Ġyesterday": 4168,
      "Ġcreature": 4169,
      "Ġexciting": 4170,
      "Ġdeterm": 4171,
      "Ġlanded": 4172,
      "Ġmetal": 4173,
      "Ġheal": 4174,
      "Ġsave": 4175,
      "Ġcupped": 4176,
      "Ġneither": 4177,
      "Ġgrown": 4178,
      "ĠMost": 4179,
      "Ġsplit": 4180,
      "Ġshifted": 4181,
      "UU": 4182,
      "sion": 4183,
      "Ġinteresting": 4184,
      "Ġbreathed": 4185,
      "Ġunbutton": 4186,
      "Ġrooms": 4187,
      "Ġpounded": 4188,
      "Ġwaves": 4189,
      "asha": 4190,
      "Ġinterr": 4191,
      "ĠOnly": 4192,
      "Ġbench": 4193,
      "Ġpark": 4194,
      "Ġglasses": 4195,
      "Ġheads": 4196,
      "pers": 4197,
      "Ġdragged": 4198,
      "port": 4199,
      "yes": 4200,
      "Ġslamming": 4201,
      "rily": 4202,
      "itching": 4203,
      "Ġseven": 4204,
      "Ġfix": 4205,
      "ĠGu": 4206,
      "Ġinnocent": 4207,
      "do": 4208,
      "Ġbreaking": 4209,
      "Ġplug": 4210,
      "Ġscrew": 4211,
      "Ġrode": 4212,
      "ai": 4213,
      "reg": 4214,
      "ĠCass": 4215,
      "uit": 4216,
      "uts": 4217,
      "cer": 4218,
      "zed": 4219,
      "Ġexpecting": 4220,
      "ĠBobby": 4221,
      "Ġopposite": 4222,
      "Ġclimb": 4223,
      "Ġspunk": 4224,
      "Ġcloth": 4225,
      "Ġhelpless": 4226,
      "ĠAmber": 4227,
      "Ġ12": 4228,
      "Ġparts": 4229,
      "Ġmark": 4230,
      "Ġnibb": 4231,
      "ĠMelissa": 4232,
      "Ġoverw": 4233,
      "Ġadmitted": 4234,
      "Ġcoat": 4235,
      "Ġwished": 4236,
      "oose": 4237,
      "essor": 4238,
      "Ġmassaged": 4239,
      "Ġrapidly": 4240,
      "pes": 4241,
      "Ġkilled": 4242,
      "Ġinh": 4243,
      "dom": 4244,
      "ĠPer": 4245,
      "ners": 4246,
      "Ġglistening": 4247,
      "roll": 4248,
      "aff": 4249,
      "Damn": 4250,
      "Ġtrick": 4251,
      "udge": 4252,
      "Ġconcerned": 4253,
      "ĠBrian": 4254,
      "##": 4255,
      "Ġleaking": 4256,
      "Ġhated": 4257,
      "riage": 4258,
      "Ġmuscular": 4259,
      "Uh": 4260,
      "Ġreality": 4261,
      "Ġfighting": 4262,
      "Ġeagerly": 4263,
      "ified": 4264,
      "rin": 4265,
      "Ġattached": 4266,
      "Ġintens": 4267,
      "acey": 4268,
      "Ġbadly": 4269,
      "Ġsensations": 4270,
      "Ġjeal": 4271,
      "Ġheight": 4272,
      "Ġcow": 4273,
      "Ġris": 4274,
      "Ġforgot": 4275,
      "Ġpalm": 4276,
      "Ġsmaller": 4277,
      "ĠBrit": 4278,
      "Ġ$": 4279,
      "Go": 4280,
      "Ġsurf": 4281,
      "SS": 4282,
      "Ġpractice": 4283,
      "dy": 4284,
      "ĠMommy": 4285,
      "Ġconsider": 4286,
      "iest": 4287,
      "Ġbutto": 4288,
      "Ġnervously": 4289,
      "Ġcolor": 4290,
      "ĠCarl": 4291,
      "Ġpainful": 4292,
      "Ġhun": 4293,
      "Ġmoves": 4294,
      "ĠUncle": 4295,
      "Ġdemanded": 4296,
      "Ġoutfit": 4297,
      "Ġbelong": 4298,
      "ĠMs": 4299,
      "ĠRita": 4300,
      "Ġactiv": 4301,
      "Ġcard": 4302,
      "board": 4303,
      "Ġslipp": 4304,
      "Ġlots": 4305,
      "je": 4306,
      "ĠCome": 4307,
      "Ġpractically": 4308,
      "cause": 4309,
      "ĠWould": 4310,
      "ĠFe": 4311,
      "Ġoverwhel": 4312,
      "Ġcurious": 4313,
      "Ġhappens": 4314,
      "ospital": 4315,
      "lock": 4316,
      "ĠTon": 4317,
      "ĠNik": 4318,
      "Ġdistance": 4319,
      "Ġpassionate": 4320,
      "Ġthirty": 4321,
      "Ġmouths": 4322,
      "ĠPot": 4323,
      "ales": 4324,
      "Ġelb": 4325,
      "oot": 4326,
      "Ġrear": 4327,
      "Ġnon": 4328,
      "Ġfingering": 4329,
      "Ġgasping": 4330,
      "Ġkneeling": 4331,
      "vy": 4332,
      "Ġlung": 4333,
      "Ġrising": 4334,
      "Ġunless": 4335,
      "kk": 4336,
      "Ġpor": 4337,
      "Ġemer": 4338,
      "Ġgay": 4339,
      "ĠJamie": 4340,
      "Ġsemi": 4341,
      "Ġpanted": 4342,
      "Ġrestaur": 4343,
      "Ġdogs": 4344,
      "asc": 4345,
      "Ġclock": 4346,
      "Ġcust": 4347,
      "ĠBrand": 4348,
      "antic": 4349,
      "Ġmanhood": 4350,
      "Ġlarger": 4351,
      "ĠEveryone": 4352,
      "rified": 4353,
      "that": 4354,
      "Ġslipping": 4355,
      "Ġcloset": 4356,
      "Ġpassionately": 4357,
      "Ġflash": 4358,
      "Ġparking": 4359,
      "Ġcerv": 4360,
      "Ġdevelop": 4361,
      "Ġbiting": 4362,
      "Ġshad": 4363,
      "Ġsession": 4364,
      "Ġalive": 4365,
      "iod": 4366,
      "Ġmood": 4367,
      "esides": 4368,
      "Ġ30": 4369,
      "Ġhidden": 4370,
      "Ġdim": 4371,
      "Ġgift": 4372,
      "Ġrespect": 4373,
      "Ġtun": 4374,
      "ND": 4375,
      "Ġanywhere": 4376,
      "ĠAlthough": 4377,
      "ĠAlexis": 4378,
      "Ġease": 4379,
      "Ġcudd": 4380,
      "ĠWho": 4381,
      "wise": 4382,
      "Ġment": 4383,
      "ĠNew": 4384,
      "Ġhood": 4385,
      "Ġstyle": 4386,
      "Mmm": 4387,
      "Ġcomm": 4388,
      "Ġeased": 4389,
      "Ġpier": 4390,
      "Ġegg": 4391,
      "ĠFirst": 4392,
      "ĠâĢĿ": 4393,
      "Ġblur": 4394,
      "Ġblew": 4395,
      "Ġrecord": 4396,
      "Ġtotal": 4397,
      "ĠNext": 4398,
      "Ġdrug": 4399,
      "Ġstaying": 4400,
      "Ġdesperate": 4401,
      "girl": 4402,
      "Ġmill": 4403,
      "Ġwhimper": 4404,
      "ĠLa": 4405,
      "eping": 4406,
      "aughters": 4407,
      "Ġdomin": 4408,
      "Ġfolds": 4409,
      "Ġtightened": 4410,
      "Ġreminded": 4411,
      "Ġconsidered": 4412,
      "Ġgul": 4413,
      "Ġceiling": 4414,
      "Ġgripping": 4415,
      "Ġhint": 4416,
      "otten": 4417,
      "anya": 4418,
      "sers": 4419,
      "Ġpurpose": 4420,
      "Ġsoul": 4421,
      "ĠDr": 4422,
      "der": 4423,
      "avage": 4424,
      "Ġraped": 4425,
      "ĠTHE": 4426,
      "Ġmommy": 4427,
      "Ġsilently": 4428,
      "Ġplacing": 4429,
      "amm": 4430,
      "Ġinvited": 4431,
      "Ġmissing": 4432,
      "ĠMin": 4433,
      "Ġchain": 4434,
      "ĠRobert": 4435,
      "Ġadult": 4436,
      "Ġstretch": 4437,
      "Ġperiod": 4438,
      "Ġvac": 4439,
      "alie": 4440,
      "ties": 4441,
      "Ġvisible": 4442,
      "tering": 4443,
      "ĠEvent": 4444,
      "jacul": 4445,
      "Ġeyeb": 4446,
      "ĠRach": 4447,
      "asty": 4448,
      "Ġtil": 4449,
      "ĠSophie": 4450,
      "ien": 4451,
      "Ġpurple": 4452,
      "Ġthrow": 4453,
      "fortun": 4454,
      "Ġpunishment": 4455,
      "hew": 4456,
      "Ġcervix": 4457,
      "Ġobl": 4458,
      "Ġdisappointed": 4459,
      "Ġwarning": 4460,
      "isha": 4461,
      "ĠJulia": 4462,
      "Ġelectric": 4463,
      "Ġwider": 4464,
      "Ġcannot": 4465,
      "30": 4466,
      "Ġsuppose": 4467,
      "Ġreceived": 4468,
      "Ġhip": 4469,
      "sk": 4470,
      "Ġsetting": 4471,
      "Ġhospital": 4472,
      "Ġobey": 4473,
      "Ġwelcome": 4474,
      "Ġsquirt": 4475,
      "Ġmachine": 4476,
      "Ġbond": 4477,
      "Ġstruggling": 4478,
      "Ġframe": 4479,
      "Ġver": 4480,
      "ĠPe": 4481,
      "Ġsimilar": 4482,
      "ĠCandy": 4483,
      "Ġflew": 4484,
      "essed": 4485,
      "Ġcontract": 4486,
      "Ġteach": 4487,
      "Ġobject": 4488,
      "Ġejacul": 4489,
      "Ġrad": 4490,
      "Ġuncle": 4491,
      "Ġhuh": 4492,
      "Ġspec": 4493,
      "Ġsquealed": 4494,
      "Ġincredibly": 4495,
      "Ġslender": 4496,
      "ĠDaniel": 4497,
      "Ġcurt": 4498,
      "Ġinformation": 4499,
      "ĠME": 4500,
      "ĠKathy": 4501,
      "Ġ---": 4502,
      "ĠEventually": 4503,
      "Ġwaved": 4504,
      "lin": 4505,
      "Ġrain": 4506,
      "Ġpissed": 4507,
      "af": 4508,
      "Ġbounced": 4509,
      "Ġtwins": 4510,
      "Ġinterrupted": 4511,
      "),": 4512,
      "ĠPart": 4513,
      "Ġgames": 4514,
      "Ġwound": 4515,
      "Ġbuttocks": 4516,
      "tress": 4517,
      "Ġreward": 4518,
      "Ġdaughters": 4519,
      "ĠMon": 4520,
      "ĠJerry": 4521,
      "Ġeyebrow": 4522,
      "Ġaching": 4523,
      "raw": 4524,
      "Ġinserted": 4525,
      "Ġliter": 4526,
      "Ġmeal": 4527,
      "Ġpossibly": 4528,
      "Ġimposs": 4529,
      "Ġflicked": 4530,
      "roy": 4531,
      "Ġpuss": 4532,
      "fold": 4533,
      "Ġboard": 4534,
      "Ġreluct": 4535,
      "ori": 4536,
      "Ġimage": 4537,
      "ora": 4538,
      "Ġbackwards": 4539,
      "Ġcurled": 4540,
      "ique": 4541,
      "Ġtaught": 4542,
      "ĠGo": 4543,
      "Ġshopping": 4544,
      "Ġrammed": 4545,
      "ĠWhere": 4546,
      "ittle": 4547,
      "Ġmemor": 4548,
      "Ġproceeded": 4549,
      "iment": 4550,
      "orts": 4551,
      "Ġslaves": 4552,
      "Ġlocal": 4553,
      "Ġdanced": 4554,
      "Ġdrif": 4555,
      "ĠMore": 4556,
      "Ġbiggest": 4557,
      "Ġsoap": 4558,
      "antage": 4559,
      "atures": 4560,
      "uffs": 4561,
      "ĠSn": 4562,
      "Ġbacked": 4563,
      "Ġdig": 4564,
      "Ġoil": 4565,
      "Ġdried": 4566,
      "Ġsniff": 4567,
      "Ġkinda": 4568,
      "ucked": 4569,
      "Ġspun": 4570,
      "Ġrestr": 4571,
      "Ġflipped": 4572,
      "olf": 4573,
      "Ġcomfort": 4574,
      "anding": 4575,
      "Ġrestaurant": 4576,
      "Ġsexually": 4577,
      "Ġworks": 4578,
      "Ġgroin": 4579,
      "Ġchanging": 4580,
      "Ġtank": 4581,
      "Ġtemp": 4582,
      "Ġwrap": 4583,
      "Ġmem": 4584,
      "Ġappl": 4585,
      "Ġnormally": 4586,
      "Ġapparently": 4587,
      "lish": 4588,
      "ats": 4589,
      "ĠMother": 4590,
      "Ġcost": 4591,
      "rect": 4592,
      "Ġsusp": 4593,
      "cho": 4594,
      "***": 4595,
      "Ġcurrent": 4596,
      "Ġslowed": 4597,
      "Ġmattress": 4598,
      "ĠGood": 4599,
      "Ġvul": 4600,
      "Ġtab": 4601,
      "rey": 4602,
      "Ġwicked": 4603,
      "rap": 4604,
      "Ġsnatch": 4605,
      "Ġstall": 4606,
      "ĠLilly": 4607,
      "ĠAbout": 4608,
      "Ġmemory": 4609,
      "Ġspur": 4610,
      "Ġwithdrew": 4611,
      "Ġpushes": 4612,
      "ĠVick": 4613,
      "Ġtrousers": 4614,
      "Ġmount": 4615,
      "Ġmixed": 4616,
      "Ġstudent": 4617,
      "Ġrules": 4618,
      "oria": 4619,
      "Ġglance": 4620,
      "ĠRay": 4621,
      "verage": 4622,
      "Ġmuscle": 4623,
      "nday": 4624,
      "Here": 4625,
      "Ġgest": 4626,
      "rench": 4627,
      "++": 4628,
      "Ġsubject": 4629,
      "All": 4630,
      "Ġsilky": 4631,
      "Ġpelvis": 4632,
      "Ġmemb": 4633,
      "ency": 4634,
      "Ġaccident": 4635,
      "ĠJackie": 4636,
      "Ġleading": 4637,
      "Ġexplode": 4638,
      "illing": 4639,
      "Ġvision": 4640,
      "ularly": 4641,
      "Ġemotion": 4642,
      "Ġcleavage": 4643,
      "In": 4644,
      "Ġinstant": 4645,
      "Ġbrothers": 4646,
      "Ġindic": 4647,
      "amb": 4648,
      "ĠMarie": 4649,
      "Ġtie": 4650,
      "Ġhiding": 4651,
      "Ġkick": 4652,
      "Ġintern": 4653,
      "ĠPotter": 4654,
      "Ġincest": 4655,
      "Ġ11": 4656,
      "ears": 4657,
      "Ġmasturbating": 4658,
      "Ġdoorway": 4659,
      "Ġhappily": 4660,
      "Ġcustom": 4661,
      "Ġaccepted": 4662,
      "Ġlistened": 4663,
      "Ġvict": 4664,
      "Ġstated": 4665,
      "iently": 4666,
      "Ġsquirmed": 4667,
      "ĠQue": 4668,
      "Ġtentac": 4669,
      "Ġdarkness": 4670,
      "Ġslippery": 4671,
      "ĠMandy": 4672,
      "Ġorgan": 4673,
      "Ġspeaking": 4674,
      "Ġflick": 4675,
      "Ġourselves": 4676,
      "Ġmuttered": 4677,
      "Ġrise": 4678,
      "Ġwalks": 4679,
      "Ġreact": 4680,
      "ĠLaure": 4681,
      "mas": 4682,
      "Ġshift": 4683,
      "Ġjigg": 4684,
      "ON": 4685,
      "view": 4686,
      "Ġgathered": 4687,
      "ki": 4688,
      "rend": 4689,
      "ousand": 4690,
      "Ġmovements": 4691,
      "Ġmarriage": 4692,
      "Ġcla": 4693,
      "Ġbeating": 4694,
      "Ġwildly": 4695,
      "becca": 4696,
      "Ġsky": 4697,
      "Ġnails": 4698,
      "Ġinit": 4699,
      "Ġinvolved": 4700,
      "iring": 4701,
      "ĠGina": 4702,
      "Ġrig": 4703,
      "Ġresult": 4704,
      "Ġdreams": 4705,
      "Ġgrabs": 4706,
      "Ġanx": 4707,
      "Ġcondition": 4708,
      "âĢĻ.": 4709,
      "Ġfield": 4710,
      "Ġvaginal": 4711,
      "Ġpaying": 4712,
      "Ġnights": 4713,
      "Ġswung": 4714,
      "igned": 4715,
      "âĢ¦..": 4716,
      "Ġsmart": 4717,
      "Ġtwat": 4718,
      "Ġdiscovered": 4719,
      "Ġswimming": 4720,
      "Ġneighbor": 4721,
      "loe": 4722,
      "Ġstunned": 4723,
      "AR": 4724,
      "Ġtummy": 4725,
      "anne": 4726,
      "Ġhurry": 4727,
      "Ġbuzz": 4728,
      "Ġjacket": 4729,
      "Ġsold": 4730,
      "Ġclut": 4731,
      "Ġtele": 4732,
      "Ġpartner": 4733,
      "ĠMadison": 4734,
      "Ġnasty": 4735,
      "ĠSomething": 4736,
      "ĠChar": 4737,
      "Ġforgotten": 4738,
      "Ġremain": 4739,
      "ĠAngela": 4740,
      "Ġsank": 4741,
      "Ġdecision": 4742,
      "Ġembrace": 4743,
      "uke": 4744,
      "Ġpinched": 4745,
      "Ġripp": 4746,
      "intment": 4747,
      "ledge": 4748,
      "Ġannoy": 4749,
      "IT": 4750,
      "Ġconcern": 4751,
      "ĠTiffany": 4752,
      "ĠMan": 4753,
      "lling": 4754,
      "und": 4755,
      "ĠEx": 4756,
      "ism": 4757,
      "Ah": 4758,
      "Ġnine": 4759,
      "ĠRebecca": 4760,
      "sp": 4761,
      "Ġcher": 4762,
      "Ġnearby": 4763,
      "Ġstraddled": 4764,
      "ĠQueen": 4765,
      "ĠSon": 4766,
      "Ġgarage": 4767,
      "Ġbriefly": 4768,
      "Ġbooks": 4769,
      "ĠSunday": 4770,
      "Ġpassing": 4771,
      "Ġregret": 4772,
      "Ġsis": 4773,
      "Ġmatch": 4774,
      "ĠDiane": 4775,
      "Ġswallowing": 4776,
      "Ġincluding": 4777,
      "ĠDamn": 4778,
      "Ġrefle": 4779,
      "ils": 4780,
      "Ġinsides": 4781,
      "Ġport": 4782,
      "Ġenth": 4783,
      "ĠCom": 4784,
      "Ġevents": 4785,
      "Ġignored": 4786,
      "umps": 4787,
      "apt": 4788,
      "Ġgiant": 4789,
      "Ġphysical": 4790,
      "Ġwedding": 4791,
      "Ġhandsome": 4792,
      "ler": 4793,
      "Ġfifteen": 4794,
      "iev": 4795,
      "Ġcircle": 4796,
      "Ġwinked": 4797,
      "alk": 4798,
      "Ġmurm": 4799,
      "Ġregular": 4800,
      "Ġsword": 4801,
      "Ġfantasies": 4802,
      "Ġdepths": 4803,
      "Ġloos": 4804,
      "fortunately": 4805,
      "Ġthinks": 4806,
      "Ġprecum": 4807,
      "Ġthousand": 4808,
      "idge": 4809,
      "Ġash": 4810,
      "Ġeverywhere": 4811,
      "ĠAngie": 4812,
      "Ġshout": 4813,
      "ĠLex": 4814,
      "Ġgrasped": 4815,
      "Ġbast": 4816,
      "Ġundid": 4817,
      "Be": 4818,
      "Ġperver": 4819,
      "Ġrubber": 4820,
      "ĠEng": 4821,
      "aggie": 4822,
      "Ġservice": 4823,
      "esb": 4824,
      "Hello": 4825,
      "ios": 4826,
      "Ġgreeted": 4827,
      "ĠTay": 4828,
      "Ġdrops": 4829,
      "Ġannounced": 4830,
      "ĠNoah": 4831,
      "Ġfours": 4832,
      "endy": 4833,
      "atively": 4834,
      "Really": 4835,
      "lyssa": 4836,
      "ĠRight": 4837,
      "Ġbroad": 4838,
      "Ġlikely": 4839,
      "ĠGrace": 4840,
      "urity": 4841,
      "Ġrout": 4842,
      "GG": 4843,
      "Ġcommon": 4844,
      "ĠJimmy": 4845,
      "Ġdemon": 4846,
      "Ġtasting": 4847,
      "OK": 4848,
      "Ġbrush": 4849,
      "uc": 4850,
      "Ġcries": 4851,
      "wed": 4852,
      "Ġinstructed": 4853,
      "Ġhairy": 4854,
      "Ġreturning": 4855,
      "Ġfuriously": 4856,
      "Have": 4857,
      "Ġcott": 4858,
      "Ġya": 4859,
      "ĠHere": 4860,
      "Ġsmelled": 4861,
      "Ġcro": 4862,
      "Ġwashing": 4863,
      "ĠIm": 4864,
      "Ġid": 4865,
      "Ġbags": 4866,
      "Ġoccasionally": 4867,
      "As": 4868,
      "ĠSure": 4869,
      "ĠBaby": 4870,
      "ĠNothing": 4871,
      "Ġavoid": 4872,
      "Ġmuffled": 4873,
      "Ġoral": 4874,
      "Ġfantastic": 4875,
      "fl": 4876,
      "Ġfarm": 4877,
      "atic": 4878,
      "chn": 4879,
      "Ġavail": 4880,
      "allas": 4881,
      "Ġblast": 4882,
      "Ġimm": 4883,
      "Ġsilk": 4884,
      "Ġcharge": 4885,
      "Ġprefer": 4886,
      "Ġthrowing": 4887,
      "Ġbudd": 4888,
      "Ġattemp": 4889,
      "Ġadvantage": 4890,
      "ĠEvan": 4891,
      "Ġsweaty": 4892,
      "Ġevil": 4893,
      "à¤": 4894,
      "ĠYeah": 4895,
      "aret": 4896,
      "Ġstockings": 4897,
      "Ġjizz": 4898,
      "Ġliterally": 4899,
      "Ġincreasing": 4900,
      "ĠMaggie": 4901,
      "Ġstruck": 4902,
      "pet": 4903,
      "Ġviolently": 4904,
      "Ġpussies": 4905,
      "Ġtrim": 4906,
      "Ġsuccess": 4907,
      "Ġlat": 4908,
      "Ġori": 4909,
      "Ġbabe": 4910,
      "Ġmere": 4911,
      "Ġthroughout": 4912,
      "Ġswear": 4913,
      "ĠTed": 4914,
      "Ġchecking": 4915,
      "ĠPo": 4916,
      "Ġsubs": 4917,
      "Ġawesome": 4918,
      "Ġstronger": 4919,
      "Ġstuffed": 4920,
      "Ġlosing": 4921,
      "ĠEve": 4922,
      "ĠDana": 4923,
      "istic": 4924,
      "Ġcontinues": 4925,
      "Would": 4926,
      "ĠAlyssa": 4927,
      "Ġmoun": 4928,
      "Ġraise": 4929,
      "ĠTanya": 4930,
      "Ġflushed": 4931,
      "Ġsurprising": 4932,
      "while": 4933,
      "Ġship": 4934,
      "Ġplanning": 4935,
      "Ġwhip": 4936,
      "Ġiss": 4937,
      "ĠShelly": 4938,
      "ĠWendy": 4939,
      "rupt": 4940,
      "Ch": 4941,
      "ĠHell": 4942,
      "Ġmult": 4943,
      "ĠHen": 4944,
      "ilst": 4945,
      "aine": 4946,
      "ĠBlack": 4947,
      "Ġplunged": 4948,
      "Ġsong": 4949,
      "Ġimpossible": 4950,
      "nel": 4951,
      "Ġpeace": 4952,
      "Ġpanic": 4953,
      "ĠEliz": 4954,
      "Ġbush": 4955,
      "Ġhurried": 4956,
      "cil": 4957,
      "Ġstone": 4958,
      "Ġ16": 4959,
      "Ġcand": 4960,
      "ĠTe": 4961,
      "Ġreplaced": 4962,
      "ĠChloe": 4963,
      "Ġunif": 4964,
      "Ġindeed": 4965,
      "Ġpicking": 4966,
      "ĠPete": 4967,
      "ĠBella": 4968,
      "ĠDonna": 4969,
      "Ġinsisted": 4970,
      "Ġthanked": 4971,
      "Ġwit": 4972,
      "Take": 4973,
      "ĠThese": 4974,
      "Ġbubb": 4975,
      "Ġgiggle": 4976,
      "Ġcatching": 4977,
      "Ġcountry": 4978,
      "Ġstraps": 4979,
      "ĠDenise": 4980,
      "acking": 4981,
      "Ġsixt": 4982,
      "umbledore": 4983,
      "Ġmentioned": 4984,
      "Ġtense": 4985,
      "Ġcarrying": 4986,
      "ED": 4987,
      "ĠChristmas": 4988,
      "Ġdribb": 4989,
      "On": 4990,
      "Ġassist": 4991,
      "Ġfri": 4992,
      "ama": 4993,
      "ĠJoy": 4994,
      "Ġmanage": 4995,
      "Ġjealous": 4996,
      "?!": 4997,
      "Ġseduct": 4998,
      "ĠSim": 4999,
      "Ġwiggled": 5000,
      "Ġmix": 5001,
      "ĠHar": 5002,
      "ĠDallas": 5003,
      "Ġgrinning": 5004,
      "Ġlesb": 5005,
      "Ġdumb": 5006,
      "Ġfroze": 5007,
      "Ġintroduced": 5008,
      "Ġundress": 5009,
      "Ġmasturbate": 5010,
      "ĠTommy": 5011,
      "Ġlace": 5012,
      "Ġhurting": 5013,
      "ĠHad": 5014,
      "Ġyard": 5015,
      "orting": 5016,
      "stal": 5017,
      "Ġperform": 5018,
      "Ġdrawing": 5019,
      "Ġmaj": 5020,
      "Ġproblems": 5021,
      "Ġtrave": 5022,
      "ĠBecause": 5023,
      "Ġtem": 5024,
      "ĠBesides": 5025,
      "ingly": 5026,
      "Ġwrapping": 5027,
      "Ġmembers": 5028,
      "ya": 5029,
      "va": 5030,
      "Ġspin": 5031,
      "ĠTam": 5032,
      "Ġnecess": 5033,
      "Ġborn": 5034,
      "ipper": 5035,
      "Ġboots": 5036,
      "Ġyel": 5037,
      "ĠNatalie": 5038,
      "Ġbeast": 5039,
      "Ġvarious": 5040,
      "Ġworn": 5041,
      "year": 5042,
      "otions": 5043,
      "Ġstranger": 5044,
      "oldem": 5045,
      "Ġmiles": 5046,
      "allen": 5047,
      "Ġslo": 5048,
      "Ġpresence": 5049,
      "ĠMiranda": 5050,
      "Ġassumed": 5051,
      "bl": 5052,
      "Ġshove": 5053,
      "Ġfought": 5054,
      "Ġlaughter": 5055,
      "ĠTaylor": 5056,
      "Ġpuff": 5057,
      "Ġtorso": 5058,
      "Ġhook": 5059,
      "ĠZo": 5060,
      "ĠOver": 5061,
      "Alright": 5062,
      "oldemort": 5063,
      "Ġhorror": 5064,
      "Ġsilly": 5065,
      "âĢĺ": 5066,
      "Ġteenage": 5067,
      "Ġdifference": 5068,
      "sl": 5069,
      "Ġgang": 5070,
      "aun": 5071,
      "Ġcommanded": 5072,
      "Ġupward": 5073,
      "Wait": 5074,
      "Ġlovers": 5075,
      "Ġintention": 5076,
      "Ġelev": 5077,
      "ĠPhil": 5078,
      "Ġsweetie": 5079,
      "Ġactions": 5080,
      "ĠKath": 5081,
      "Ġcontinuing": 5082,
      "Ġbang": 5083,
      "Ġsheer": 5084,
      "Ġhurts": 5085,
      "arts": 5086,
      "Ġsquirted": 5087,
      "ooks": 5088,
      "ĠDumbledore": 5089,
      "Ġpause": 5090,
      "Ġrocking": 5091,
      "Ġprotest": 5092,
      "Ġecho": 5093,
      "attered": 5094,
      "Ġtwitching": 5095,
      "Ġleaves": 5096,
      "OR": 5097,
      "Ġamazed": 5098,
      "Ġdivor": 5099,
      "Ġflex": 5100,
      "ĠThough": 5101,
      "Ġencoun": 5102,
      "Ġparticular": 5103,
      "Ġsurface": 5104,
      "Ġart": 5105,
      "Ġdarling": 5106,
      "kn": 5107,
      "Ġdamp": 5108,
      "Ġpermission": 5109,
      "Ġwaste": 5110,
      "Ġpole": 5111,
      "Ġurge": 5112,
      "Ġrip": 5113,
      "Ġundressed": 5114,
      "ĠFl": 5115,
      "Ġsubmiss": 5116,
      "ĠKen": 5117,
      "ĠMor": 5118,
      "Ġexch": 5119,
      "Ġclasses": 5120,
      "orged": 5121,
      "Ġbrun": 5122,
      "000": 5123,
      "atching": 5124,
      "ris": 5125,
      "Ġnurse": 5126,
      "Ġjuicy": 5127,
      "Ġrespons": 5128,
      "Ġparked": 5129,
      "Ġpurred": 5130,
      "Ġchick": 5131,
      "Ġquar": 5132,
      "Ġstab": 5133,
      "col": 5134,
      "Ġacting": 5135,
      "ĠCarrie": 5136,
      "eme": 5137,
      "Ġcircles": 5138,
      "yn": 5139,
      "Ġplastic": 5140,
      "ille": 5141,
      "Ġentirely": 5142,
      "Ġflowed": 5143,
      "Ġemotions": 5144,
      "lt": 5145,
      "Ġdug": 5146,
      "onday": 5147,
      "Ġwrite": 5148,
      "Ġfixed": 5149,
      "Ġuh": 5150,
      "Ġremaining": 5151,
      "Ġwidened": 5152,
      "Ġtension": 5153,
      "Ġdut": 5154,
      "ĠAbby": 5155,
      "off": 5156,
      "Ġpulsing": 5157,
      "Ġbowl": 5158,
      "Ġhesitated": 5159,
      "ĠTer": 5160,
      "Ġunzipped": 5161,
      "ĠâĢ¬": 5162,
      "Ġswitched": 5163,
      "Ġpow": 5164,
      "Ġpleaded": 5165,
      "Ġconfir": 5166,
      "Ġsees": 5167,
      "AN": 5168,
      "itude": 5169,
      "usi": 5170,
      "ĠRos": 5171,
      "Ġburned": 5172,
      "Ġtube": 5173,
      "Ġnobody": 5174,
      "Ġengulf": 5175,
      "Ġamong": 5176,
      "Ġreveal": 5177,
      "onscious": 5178,
      "ĠCum": 5179,
      "Ġdropping": 5180,
      "Ġconvin": 5181,
      "OOOO": 5182,
      "Bec": 5183,
      "Ġdi": 5184,
      "ivia": 5185,
      "Ġfallen": 5186,
      "Ġdetermined": 5187,
      "ĠVoldemort": 5188,
      "ĠMY": 5189,
      "Ġstring": 5190,
      "ĠVict": 5191,
      "ĠDebbie": 5192,
      "Ġfrown": 5193,
      "ĠSteven": 5194,
      "ĠGreg": 5195,
      "Ġtoys": 5196,
      "Ġfairly": 5197,
      "sey": 5198,
      "Ġpuck": 5199,
      "sive": 5200,
      "ĠMonday": 5201,
      "Ġbreaths": 5202,
      "ĠHenry": 5203,
      "Ġrequest": 5204,
      "Ġest": 5205,
      "Ġhissed": 5206,
      "Ġrealizing": 5207,
      "Ġembarrassment": 5208,
      "Ġexplore": 5209,
      "Ġproperly": 5210,
      "Ġboner": 5211,
      "Ġsmirked": 5212,
      "ium": 5213,
      "ĠThose": 5214,
      "Ġplate": 5215,
      "See": 5216,
      "earing": 5217,
      "Ġrigid": 5218,
      "Ġrelieved": 5219,
      "Ġchose": 5220,
      "Ġdeliver": 5221,
      "cend": 5222,
      "Ġfault": 5223,
      "Ġfuta": 5224,
      ">>": 5225,
      "ĠMc": 5226,
      "ĠAngus": 5227,
      "Ġsheet": 5228,
      "vey": 5229,
      "Ġspine": 5230,
      "urning": 5231,
      "Ġgiggling": 5232,
      "Ġnames": 5233,
      "Ġgasps": 5234,
      "Ġsalty": 5235,
      "Because": 5236,
      "ĠJasm": 5237,
      "xic": 5238,
      "Ġthrill": 5239,
      "unge": 5240,
      "Ġearth": 5241,
      "rit": 5242,
      "alled": 5243,
      "ĠNancy": 5244,
      "Ġhumping": 5245,
      "Ġtips": 5246,
      "Ġsyst": 5247,
      "Ġslides": 5248,
      "Ġmatching": 5249,
      "!!!!": 5250,
      "Ġtrack": 5251,
      "Ġerupted": 5252,
      "Ġrecently": 5253,
      "bel": 5254,
      "Me": 5255,
      "Ġwooden": 5256,
      "dess": 5257,
      "Ġstation": 5258,
      "Ġenthusi": 5259,
      "gar": 5260,
      "rud": 5261,
      "Ġbasement": 5262,
      "?'": 5263,
      "Ġnoises": 5264,
      "Ġtrees": 5265,
      "Ġstartled": 5266,
      "Ġoccur": 5267,
      "Ġworst": 5268,
      "Ġinfl": 5269,
      "umbling": 5270,
      "Ġ19": 5271,
      "Ġconscious": 5272,
      "Ġrocked": 5273,
      "Ġangle": 5274,
      "hol": 5275,
      "asley": 5276,
      "Ġmeas": 5277,
      "Ġsolid": 5278,
      "Ġrect": 5279,
      "Ġpoking": 5280,
      "ĠJacob": 5281,
      "Ġdetails": 5282,
      "Ġnature": 5283,
      "ĠTaking": 5284,
      "Ġblowing": 5285,
      "Ġpanty": 5286,
      "Ġlesson": 5287,
      "Ġtwisting": 5288,
      "Ġbucked": 5289,
      "Ġsatisfaction": 5290,
      "Ġgagged": 5291,
      "Ġnud": 5292,
      "ĠLord": 5293,
      "Ġmemories": 5294,
      "Ġpounds": 5295,
      "Ġcomments": 5296,
      "Ġsurv": 5297,
      "iara": 5298,
      "ĠGO": 5299,
      "lee": 5300,
      "Ġtrembled": 5301,
      "Ġflying": 5302,
      "??": 5303,
      "Ġsite": 5304,
      "Ġwhilst": 5305,
      "Ġdrifted": 5306,
      "Ġtool": 5307,
      "Ġstands": 5308,
      "Ġseeming": 5309,
      "Ġseriously": 5310,
      "ĠEverything": 5311,
      "iot": 5312,
      "Ġdang": 5313,
      "ples": 5314,
      "Ġformed": 5315,
      "Ġrare": 5316,
      "Ġbrunette": 5317,
      "Ġbottoms": 5318,
      "Ġclamped": 5319,
      "Ġescaped": 5320,
      "Ġmovies": 5321,
      "Ġrom": 5322,
      "ĠApri": 5323,
      "rr": 5324,
      "Ġmumbled": 5325,
      "Ġweap": 5326,
      "urch": 5327,
      "Ġentering": 5328,
      "Ġquivering": 5329,
      "Ġrag": 5330,
      "Ġbrut": 5331,
      "ĠCher": 5332,
      "Ġpizz": 5333,
      "HHH": 5334,
      "Ġyellow": 5335,
      "ĠCassie": 5336,
      "Ġrefused": 5337,
      "Ġstruggle": 5338,
      "ĠBeing": 5339,
      "Ġcook": 5340,
      "Ġtitties": 5341,
      "uzzled": 5342,
      "avier": 5343,
      "Ġawhile": 5344,
      "uing": 5345,
      "atever": 5346,
      "ĠOlivia": 5347,
      "back": 5348,
      "itting": 5349,
      "une": 5350,
      "ĠGabri": 5351,
      "Ġbastard": 5352,
      "ĠGrand": 5353,
      "Ġtechn": 5354,
      "Ġjet": 5355,
      "Ġdesires": 5356,
      "Ġtingling": 5357,
      "ĠPenny": 5358,
      "Ġracing": 5359,
      "Ġsnugg": 5360,
      "Ġlack": 5361,
      "Ġdelicate": 5362,
      "uthor": 5363,
      "iles": 5364,
      "ĠWeasley": 5365,
      "ĠThanks": 5366,
      "boy": 5367,
      "wh": 5368,
      "Ġbuttons": 5369,
      "Ġaltern": 5370,
      "Ġthor": 5371,
      "Ġbust": 5372,
      "Ġfingert": 5373,
      "ĠSnape": 5374,
      "ka": 5375,
      "Ġaut": 5376,
      "bye": 5377,
      "Ġtape": 5378,
      "Ġengorged": 5379,
      "Ġwindows": 5380,
      "OH": 5381,
      "Ġsilver": 5382,
      "ĠEllen": 5383,
      "Ġnicely": 5384,
      "Ġhi": 5385,
      "Ġshrie": 5386,
      "ĠBarbara": 5387,
      "omes": 5388,
      "ugging": 5389,
      "ĠDespite": 5390,
      "Ġsharing": 5391,
      "âĤ": 5392,
      "âĤ¬": 5393,
      "Ġtugged": 5394,
      "Ġclas": 5395,
      "Ġremoving": 5396,
      "Ġslee": 5397,
      "Ġupwards": 5398,
      "Ġswitch": 5399,
      "Ġdicks": 5400,
      "Ġpony": 5401,
      "ĠDanie": 5402,
      "aith": 5403,
      "Ġcalls": 5404,
      "Ġwoods": 5405,
      "Ġplayfully": 5406,
      "Ġkeeps": 5407,
      "Ġlesbian": 5408,
      "Tell": 5409,
      "Ġhesitation": 5410,
      "ĠPam": 5411,
      "eding": 5412,
      "Ġreaches": 5413,
      "ilty": 5414,
      "ĠEn": 5415,
      "Ġextended": 5416,
      "Ġcarpet": 5417,
      "Ġvo": 5418,
      "Ġbrushing": 5419,
      "ounge": 5420,
      "Ġhamm": 5421,
      "Ġtighten": 5422,
      "Ġapproaching": 5423,
      "Ġgrasp": 5424,
      "Ġchallen": 5425,
      "Wh": 5426,
      "Ġspir": 5427,
      "ĠKit": 5428,
      "Ġspending": 5429,
      "ĠCol": 5430,
      "eter": 5431,
      "Ġzipper": 5432,
      "Ġpleasant": 5433,
      "Ġstaff": 5434,
      "Ġtries": 5435,
      "Ġnamed": 5436,
      "Ġorigin": 5437,
      "ĠApril": 5438,
      "Ġbear": 5439,
      "Ġsmirk": 5440,
      "ĠOk": 5441,
      "Ġfootball": 5442,
      "Ġtwitched": 5443,
      "Ġens": 5444,
      "Ġprison": 5445,
      "ĠJessie": 5446,
      "Ġseries": 5447,
      "Ġbesides": 5448,
      "Ġtensed": 5449,
      "ĠSandra": 5450,
      "Ġdozen": 5451,
      "Ġuncont": 5452,
      "ĠSil": 5453,
      "Ġsenses": 5454,
      "Ġfaint": 5455,
      "ĠAlan": 5456,
      "ĠNikki": 5457,
      "Ġyanked": 5458,
      "ĠApp": 5459,
      "Ġdressing": 5460,
      "str": 5461,
      "Ġpad": 5462,
      "Ġfingered": 5463,
      "Ġthorough": 5464,
      "Ġpinching": 5465,
      "Ġmoon": 5466,
      "ea": 5467,
      "Ġflashed": 5468,
      "ĠSometimes": 5469,
      "Ġshivered": 5470,
      "ground": 5471,
      "iple": 5472,
      "Daddy": 5473,
      "nes": 5474,
      "Ġshots": 5475,
      "Ġinfor": 5476,
      "Any": 5477,
      "ĠJasmine": 5478,
      "Ġrecover": 5479,
      "iamond": 5480,
      "ĠLauren": 5481,
      "Ġcherry": 5482,
      "Ġgown": 5483,
      "Ġsurrounded": 5484,
      "fessor": 5485,
      "Ġsocks": 5486,
      "Ġhonestly": 5487,
      "Ġbobbing": 5488,
      "Ġcreamy": 5489,
      "Ġlines": 5490,
      "Ġalco": 5491,
      "urs": 5492,
      "Ġgrass": 5493,
      "Ġgroaning": 5494,
      "AAAA": 5495,
      "Ġlounge": 5496,
      "Ġhol": 5497,
      "Ġbru": 5498,
      "Ġlined": 5499,
      "Ġexpen": 5500,
      "ishly": 5501,
      "Ġaddress": 5502,
      "Ġcotton": 5503,
      "Ġwitness": 5504,
      "Ġhalfway": 5505,
      "Ġtreated": 5506,
      "ĠKayla": 5507,
      "oug": 5508,
      "Ġvill": 5509,
      "Ġtore": 5510,
      "Ġcorrect": 5511,
      "ĠThom": 5512,
      "Ġbowels": 5513,
      "erc": 5514,
      "ĠLittle": 5515,
      "Ġdrawn": 5516,
      "Ġsecurity": 5517,
      "Ġresistance": 5518,
      "Ġunlock": 5519,
      "Ġcleared": 5520,
      "Ġmotioned": 5521,
      "wing": 5522,
      "iber": 5523,
      "Ġimpress": 5524,
      "For": 5525,
      "Ġsmoke": 5526,
      "Ġagreement": 5527,
      "Ġcoated": 5528,
      "Ġwriting": 5529,
      "ept": 5530,
      "Ġpenetrated": 5531,
      "Ġenorm": 5532,
      "ĠJean": 5533,
      "Ġterrible": 5534,
      "Ġflooded": 5535,
      "Ġintensity": 5536,
      "Ġfaced": 5537,
      "ĠBritt": 5538,
      "ooo": 5539,
      "inked": 5540,
      "dia": 5541,
      "Ġputs": 5542,
      "ĠRachael": 5543,
      "Ġtwitch": 5544,
      "Ġstops": 5545,
      "ĠVal": 5546,
      "ems": 5547,
      "heart": 5548,
      "rage": 5549,
      "Ġdating": 5550,
      "Ġpile": 5551,
      "Ġprevent": 5552,
      "Ġmakeup": 5553,
      "Ġtour": 5554,
      "Ġguilty": 5555,
      "ĠAndre": 5556,
      "ibility": 5557,
      "Ġunders": 5558,
      "Ġunw": 5559,
      "uch": 5560,
      "Ġsquat": 5561,
      "azed": 5562,
      "Ġmajor": 5563,
      "oman": 5564,
      "Ġlicks": 5565,
      "Ġotherwise": 5566,
      "Ġdrawer": 5567,
      "ailey": 5568,
      "Ġfright": 5569,
      "ĠTell": 5570,
      "Ġaudience": 5571,
      "Ġshowered": 5572,
      "Ġslutty": 5573,
      "Ġperky": 5574,
      "Ġboat": 5575,
      "Ġsubmissive": 5576,
      "ii": 5577,
      "Ġfier": 5578,
      "rem": 5579,
      "Ġsen": 5580,
      "Ġbattle": 5581,
      "Ġmaint": 5582,
      "esus": 5583,
      "Ġundo": 5584,
      "Ġdeck": 5585,
      "Ġvig": 5586,
      "Ġsneak": 5587,
      "Ġhooked": 5588,
      "olt": 5589,
      "Ġashamed": 5590,
      "Ġropes": 5591,
      "ĠSeeing": 5592,
      "Ġbunch": 5593,
      "Ġfired": 5594,
      "Like": 5595,
      "Ġthrown": 5596,
      "Ġbored": 5597,
      "uated": 5598,
      "ĠHave": 5599,
      "Ġknowledge": 5600,
      "Ġchairs": 5601,
      "Ġuniform": 5602,
      "Ġnowhere": 5603,
      "Ġtorture": 5604,
      "ĠJoey": 5605,
      "Ġstudy": 5606,
      "Ġadjust": 5607,
      "Ġtar": 5608,
      "udy": 5609,
      "elia": 5610,
      "house": 5611,
      "Ġking": 5612,
      "Ġlied": 5613,
      "ĠGirl": 5614,
      "Ġkeys": 5615,
      "Ġadjusted": 5616,
      "Ġsteel": 5617,
      "Ġwo": 5618,
      "Ġmistake": 5619,
      "cher": 5620,
      "Ġbud": 5621,
      "Ġexpert": 5622,
      "Ġfreed": 5623,
      "ĠOkay": 5624,
      "Ġcheerle": 5625,
      "Ġawoke": 5626,
      "Ġaccount": 5627,
      "Ġorders": 5628,
      "Ġgolden": 5629,
      "ploy": 5630,
      "ashes": 5631,
      "Ġpurse": 5632,
      "Ġsearching": 5633,
      "Ġleash": 5634,
      "over": 5635,
      "Ġfet": 5636,
      "Ġassault": 5637,
      "ĠPr": 5638,
      "Ġtwin": 5639,
      "Ġbegun": 5640,
      "Ġfool": 5641,
      "iant": 5642,
      "Ġignore": 5643,
      "Ġpizza": 5644,
      "Ġclaw": 5645,
      "Ġsized": 5646,
      "Ġtea": 5647,
      "Ġneat": 5648,
      "Ġdriveway": 5649,
      "Ġfan": 5650,
      "Ġsedu": 5651,
      "Ġutter": 5652,
      "Ġassured": 5653,
      "Ġshoving": 5654,
      "Ġguessed": 5655,
      "IS": 5656,
      "ĠLou": 5657,
      "Ġphotos": 5658,
      "Ġplain": 5659,
      "Ġbone": 5660,
      "Right": 5661,
      "Ġmate": 5662,
      "ĠWal": 5663,
      "essa": 5664,
      "esting": 5665,
      "================": 5666,
      "Ġrich": 5667,
      "Ġoffering": 5668,
      "Ġmanner": 5669,
      "Ġcars": 5670,
      "ĠKaty": 5671,
      "Ġhorn": 5672,
      "bit": 5673,
      "inated": 5674,
      "Ġreass": 5675,
      "Ġgotta": 5676,
      "Ġneg": 5677,
      "Ġconfident": 5678,
      "ĠLuck": 5679,
      "Ġmeaning": 5680,
      "Ġpu": 5681,
      "Ġmagaz": 5682,
      "Ġaverage": 5683,
      "Ġskinny": 5684,
      "inch": 5685,
      "pper": 5686,
      "ssss": 5687,
      "mate": 5688,
      "eral": 5689,
      "athan": 5690,
      "ĠXavier": 5691,
      "Ġjam": 5692,
      "Ġsystem": 5693,
      "Ġhandful": 5694,
      "aph": 5695,
      "Ġavailable": 5696,
      "Ġraising": 5697,
      "~~~~~~~~~~~~~~~~": 5698,
      "Ġfake": 5699,
      "Ġhorrible": 5700,
      "Ġforest": 5701,
      "Ġrese": 5702,
      "Ġguilt": 5703,
      "ists": 5704,
      "ĠHelen": 5705,
      "Ġaffe": 5706,
      "ooling": 5707,
      "Ġglow": 5708,
      "jected": 5709,
      "ray": 5710,
      "Ġalcohol": 5711,
      "Ġbounce": 5712,
      "ades": 5713,
      "abeth": 5714,
      "Ġblushing": 5715,
      "ĠStacey": 5716,
      ",'": 5717,
      "Ġraw": 5718,
      "Ġscar": 5719,
      "ker": 5720,
      "Ġpacked": 5721,
      "ĠRoger": 5722,
      "hard": 5723,
      "Ġchoose": 5724,
      "Ġcontent": 5725,
      "Ġpetite": 5726,
      "Ġhugging": 5727,
      "ĠRobin": 5728,
      "ĠBecca": 5729,
      "Ġcommun": 5730,
      "ickers": 5731,
      "Ġthrobbed": 5732,
      "Ġends": 5733,
      "renched": 5734,
      "Ġgrunting": 5735,
      "Ġouter": 5736,
      "ĠKristen": 5737,
      "Ġspanking": 5738,
      "Ġintently": 5739,
      "Ġharm": 5740,
      "ĠCharlie": 5741,
      "anting": 5742,
      "arden": 5743,
      "Ġswing": 5744,
      "com": 5745,
      "Ġmut": 5746,
      "Ġspark": 5747,
      "Ġwritten": 5748,
      "Ġfac": 5749,
      "Ġplus": 5750,
      "ĠGary": 5751,
      "ĠSusie": 5752,
      "Ġpieces": 5753,
      "icle": 5754,
      "Ġintimate": 5755,
      "Ġthumbs": 5756,
      "Ġtravel": 5757,
      "Ġintended": 5758,
      "rigg": 5759,
      "ĠAaron": 5760,
      "orter": 5761,
      "Ġgazed": 5762,
      "Ġsucks": 5763,
      "Ġexploring": 5764,
      "Ġdoggy": 5765,
      ".âĢĿ,": 5766,
      "eps": 5767,
      "ishes": 5768,
      "Ġswift": 5769,
      "ĠDeb": 5770,
      "Ġwarned": 5771,
      "Ġfrustration": 5772,
      "key": 5773,
      "Ġmall": 5774,
      "Ġscoo": 5775,
      "Ġcollect": 5776,
      "Ġuncontroll": 5777,
      "Ġlasted": 5778,
      "vern": 5779,
      "Ġident": 5780,
      "Ġfed": 5781,
      "Ġgoo": 5782,
      "Ġrings": 5783,
      "ĠSher": 5784,
      "Ġprop": 5785,
      "Ġsquirming": 5786,
      "ĠColl": 5787,
      "Ġunh": 5788,
      "Ġrum": 5789,
      "ashion": 5790,
      "Ġindex": 5791,
      "ĠFeeling": 5792,
      "Ġrepeatedly": 5793,
      "Ġsobbing": 5794,
      "ilities": 5795,
      "Ġcharac": 5796,
      "icia": 5797,
      "hhhhhhhh": 5798,
      "Ġlocker": 5799,
      "Ġbalance": 5800,
      "Ġopens": 5801,
      "ket": 5802,
      "Ġdeb": 5803,
      "Ġdestroy": 5804,
      "Ġmillion": 5805,
      "ouses": 5806,
      "Ġrot": 5807,
      "Ġabdom": 5808,
      "Ġlotion": 5809,
      "Ġ14": 5810,
      "Ġjoke": 5811,
      "Ġmini": 5812,
      "Ġunbuttoned": 5813,
      "Ġconfusion": 5814,
      "Ġgradually": 5815,
      "Ġlake": 5816,
      "ĠJenna": 5817,
      "ĠTy": 5818,
      "Ġapproval": 5819,
      "Does": 5820,
      "emember": 5821,
      "Ġshaped": 5822,
      "Ġremote": 5823,
      "using": 5824,
      "ĠAmer": 5825,
      "Ġmarry": 5826,
      "Ġpositions": 5827,
      "Ġmounted": 5828,
      "Ġraging": 5829,
      "ulous": 5830,
      "Ġswaying": 5831,
      "Ã¢": 5832,
      "Ġfemin": 5833,
      "Ġclosely": 5834,
      "ĠTre": 5835,
      "Ġinviting": 5836,
      "Ġlanding": 5837,
      "ville": 5838,
      "Ġwink": 5839,
      "Ġgaping": 5840,
      "iece": 5841,
      "attoo": 5842,
      "Ġconstantly": 5843,
      "gram": 5844,
      "rs": 5845,
      "elest": 5846,
      "ĠHaving": 5847,
      "Ġswelling": 5848,
      "Ġsour": 5849,
      "Ġlungs": 5850,
      "ĠDanielle": 5851,
      "Ġaband": 5852,
      "Ġmistress": 5853,
      "Ġrelaxing": 5854,
      "Ġmaid": 5855,
      "ĠTod": 5856,
      "Ġrevealed": 5857,
      "ĠAnyway": 5858,
      "ese": 5859,
      "Ġelevator": 5860,
      "Ġsph": 5861,
      "Ġcurves": 5862,
      "Ġappreciate": 5863,
      "eron": 5864,
      "ĠCal": 5865,
      "Ġrisk": 5866,
      "Ġmurmured": 5867,
      "ids": 5868,
      "Ġstrang": 5869,
      "Ġpinned": 5870,
      "ĠSirius": 5871,
      "oma": 5872,
      "ĠThree": 5873,
      "Ġvictim": 5874,
      "ĠDuring": 5875,
      "Ġunlo": 5876,
      "Ġchuckle": 5877,
      "Ġenormous": 5878,
      "ĠTO": 5879,
      "Ġideas": 5880,
      "Ġprote": 5881,
      "arrow": 5882,
      "Ġflicking": 5883,
      "Ġtorn": 5884,
      "Ġfolded": 5885,
      "Ġtoe": 5886,
      "Ġemploy": 5887,
      "ĠStacy": 5888,
      "artment": 5889,
      "Ġpleading": 5890,
      "ĠEnglish": 5891,
      "Ġdirt": 5892,
      "Ġflight": 5893,
      "ĠWithin": 5894,
      "Ġpig": 5895,
      "antically": 5896,
      "Ġfinishing": 5897,
      "Ġdripped": 5898,
      "Ġdangerous": 5899,
      "Ġpenetration": 5900,
      "Ġcreated": 5901,
      "Ġafterwards": 5902,
      "Ġmagnif": 5903,
      "ĠProfessor": 5904,
      "Ġcig": 5905,
      "ĠFrench": 5906,
      "ĠPull": 5907,
      "Ġowner": 5908,
      "Ġsphinc": 5909,
      "Ġyelling": 5910,
      "eal": 5911,
      "Ġnuts": 5912,
      "Ġhotter": 5913,
      "Ġdecl": 5914,
      "ctually": 5915,
      "ĠLook": 5916,
      "Ġnecessary": 5917,
      "Ġexcuse": 5918,
      "Ġadvent": 5919,
      "Ġshortly": 5920,
      "Ġgroans": 5921,
      "ĠVicky": 5922,
      "Ġhasn": 5923,
      "Ġscoot": 5924,
      "ĠST": 5925,
      "ĠSuz": 5926,
      "itor": 5927,
      "Ġwhose": 5928,
      "Ġbucking": 5929,
      "Ġlang": 5930,
      "ithing": 5931,
      "ĠYES": 5932,
      "Ġvideos": 5933,
      "gs": 5934,
      "ĠMa": 5935,
      "Ġpuls": 5936,
      "Ġwhispering": 5937,
      "Ġrecognized": 5938,
      "Ġsack": 5939,
      "ĠOut": 5940,
      "ĠHelena": 5941,
      "Ġtattoo": 5942,
      "Ġapplied": 5943,
      "Ġunsure": 5944,
      "ffic": 5945,
      "Ġsooner": 5946,
      "ĠVi": 5947,
      "Ġcasually": 5948,
      "ĠTake": 5949,
      "Ġnub": 5950,
      "Ġunex": 5951,
      "Ġobser": 5952,
      "Ġdollars": 5953,
      "Ġsmacked": 5954,
      "Ġeighteen": 5955,
      "tail": 5956,
      "Ġfailed": 5957,
      "Ġgate": 5958,
      "Ġval": 5959,
      "ĠKn": 5960,
      "Ġprove": 5961,
      "eech": 5962,
      "ĠNever": 5963,
      "Ġconfidence": 5964,
      "Ġblindfold": 5965,
      "foy": 5966,
      "ĠRandy": 5967,
      "Ġgrate": 5968,
      "aaaa": 5969,
      "Ġbree": 5970,
      "org": 5971,
      "Ġalarm": 5972,
      "Ġconstant": 5973,
      "Ġtask": 5974,
      "Ġplanted": 5975,
      "Ġcontain": 5976,
      "ĠHog": 5977,
      "Ġpouring": 5978,
      ".âĢŃ": 5979,
      "Ġconsidering": 5980,
      "coming": 5981,
      "tt": 5982,
      "Ġreleasing": 5983,
      "Ġbloody": 5984,
      "mod": 5985,
      "Stop": 5986,
      "Um": 5987,
      "Ġexerc": 5988,
      "Ġstraining": 5989,
      "Ġlaptop": 5990,
      "ality": 5991,
      "Ġjour": 5992,
      "Ġattend": 5993,
      "Ġpainfully": 5994,
      "Ġoozing": 5995,
      "Ġterrified": 5996,
      "Ġfondling": 5997,
      "Ġseated": 5998,
      "ĠSer": 5999,
      "Ġretrie": 6000,
      "aly": 6001,
      "Ġkink": 6002,
      "Ġknickers": 6003,
      "sc": 6004,
      "Ġwrithing": 6005,
      "icent": 6006,
      "igging": 6007,
      "Ġsphincter": 6008,
      "Ġstamm": 6009,
      "Ġorgasmic": 6010,
      "Ġpulse": 6011,
      "Ġarrange": 6012,
      "Ġreluctantly": 6013,
      "uss": 6014,
      "elve": 6015,
      "ĠCathy": 6016,
      "Ġsuspic": 6017,
      "Ġseats": 6018,
      "Ġcloud": 6019,
      "Ġbending": 6020,
      "Ġraced": 6021,
      "Ġruns": 6022,
      "ĠUp": 6023,
      "âĢ¦\"": 6024,
      "Ġchurch": 6025,
      "ĠSean": 6026,
      "âĢĻ,": 6027,
      "Ġunderstanding": 6028,
      "ĠVictoria": 6029,
      "eleste": 6030,
      "Ġagony": 6031,
      "ires": 6032,
      "Ġbasically": 6033,
      "ĠSever": 6034,
      "Ġsports": 6035,
      "Ġfarther": 6036,
      "ĠBrandon": 6037,
      "Ġrole": 6038,
      "ĠConnie": 6039,
      "Ġadding": 6040,
      "thur": 6041,
      "Ġhat": 6042,
      "law": 6043,
      "Ġspring": 6044,
      "Ġfilthy": 6045,
      "Ġsnow": 6046,
      "Ġshudder": 6047,
      "ĠElizabeth": 6048,
      "Ġwrigg": 6049,
      "stand": 6050,
      "Ġsaved": 6051,
      "Ġsquirting": 6052,
      "Ġath": 6053,
      "Shit": 6054,
      "Ġserved": 6055,
      "ients": 6056,
      "Ġurg": 6057,
      "Ġgut": 6058,
      "lebr": 6059,
      "ĠMalfoy": 6060,
      "ĠCo": 6061,
      "Ġtilted": 6062,
      "Ġsits": 6063,
      "vision": 6064,
      "Ġclenching": 6065,
      "acc": 6066,
      "Ġletter": 6067,
      "Ġfucks": 6068,
      "ĠLuc": 6069,
      "Ġmask": 6070,
      "ĠJoyce": 6071,
      "AS": 6072,
      "Ġnoticing": 6073,
      "ĠUnfortunately": 6074,
      "Ġcourt": 6075,
      "Ġmultiple": 6076,
      "Ġsensual": 6077,
      "ĠMake": 6078,
      "Ġknob": 6079,
      "Ġtingle": 6080,
      "Ġparticularly": 6081,
      "Ġabdomen": 6082,
      "Ġbooth": 6083,
      "Ġfourth": 6084,
      "ases": 6085,
      "Ġfriendly": 6086,
      "Ġling": 6087,
      "than": 6088,
      "quis": 6089,
      "Ġdeg": 6090,
      "Ġserve": 6091,
      "ĠElena": 6092,
      "ĠCand": 6093,
      "Ġcared": 6094,
      "Ġlapped": 6095,
      "Ġsearch": 6096,
      "Ġaggress": 6097,
      "Ġguests": 6098,
      "Ġdorm": 6099,
      "Ġpeak": 6100,
      "Ġprobing": 6101,
      "Ġrectum": 6102,
      "Ex": 6103,
      "Ġswinging": 6104,
      "ailing": 6105,
      "Ġwaistband": 6106,
      "itation": 6107,
      "Ġwetter": 6108,
      "Ho": 6109,
      "lie": 6110,
      "Ġfasc": 6111,
      "Ġability": 6112,
      "Ġguide": 6113,
      "orrow": 6114,
      "Ġpatted": 6115,
      "Ġhungrily": 6116,
      "Ġstimulation": 6117,
      "Ġblush": 6118,
      "Ġexplos": 6119,
      "weet": 6120,
      "ĠChe": 6121,
      "ĠMart": 6122,
      "Ġrib": 6123,
      "Ġprost": 6124,
      "Ġgirth": 6125,
      "Ġhist": 6126,
      "Ġwipe": 6127,
      "bell": 6128,
      "Ġfish": 6129,
      "ĠTara": 6130,
      "ĠBack": 6131,
      "Ġtrapped": 6132,
      "Ġangel": 6133,
      "Ġregard": 6134,
      "Ġanimals": 6135,
      "asons": 6136,
      "Ġprim": 6137,
      "Ġefforts": 6138,
      "Ġkneel": 6139,
      "Ġobsc": 6140,
      "Ġofficer": 6141,
      "atherine": 6142,
      "Ġcelebr": 6143,
      "Ġrecept": 6144,
      "Ġelbows": 6145,
      "Ġop": 6146,
      "ĠLater": 6147,
      "ĠLove": 6148,
      "pm": 6149,
      "ule": 6150,
      "Ġembra": 6151,
      "Ġfingertips": 6152,
      "Ġtoned": 6153,
      "Ġthre": 6154,
      "mother": 6155,
      "Ġspeech": 6156,
      "rystal": 6157,
      "Ġunp": 6158,
      "Ġblade": 6159,
      "Ġbun": 6160,
      "Ġsched": 6161,
      "Ġhost": 6162,
      "ĠAnnie": 6163,
      "Ġknocking": 6164,
      "Ġtops": 6165,
      "Ġlapping": 6166,
      "Ġsometime": 6167,
      "ĠMean": 6168,
      "yler": 6169,
      "acted": 6170,
      "Ġbehav": 6171,
      "Ġpunished": 6172,
      "ĠTracy": 6173,
      "Ġbasket": 6174,
      "Ġstat": 6175,
      "Ġtarget": 6176,
      "Ġmilking": 6177,
      "ĠArthur": 6178,
      "Ġinstinctively": 6179,
      "Ġrace": 6180,
      "Ġbelieved": 6181,
      "Ġcru": 6182,
      "Ġforcefully": 6183,
      "VE": 6184,
      "ĠLes": 6185,
      "Ġcircum": 6186,
      "Ġleans": 6187,
      "Ġtunnel": 6188,
      "Ġ***": 6189,
      "Ġpred": 6190,
      "âĢ¦âĢ¦âĢ¦âĢ¦": 6191,
      "Ġjacking": 6192,
      "Ġ?": 6193,
      "cell": 6194,
      "ĠAndrea": 6195,
      "Ġnarrow": 6196,
      "Ġtrailed": 6197,
      "Ġconnected": 6198,
      "Ġunderside": 6199,
      "Ġdisgusting": 6200,
      "ĠIT": 6201,
      "astically": 6202,
      "ĠBig": 6203,
      "Ġaccent": 6204,
      "bing": 6205,
      "Ġsurely": 6206,
      "Ġfreak": 6207,
      "Ġdigging": 6208,
      "Ġinformed": 6209,
      "enger": 6210,
      "ĠHall": 6211,
      "ĠDuke": 6212,
      "Ġunlike": 6213,
      "clock": 6214,
      "Ġthoroughly": 6215,
      "aily": 6216,
      "Ġroof": 6217,
      "ao": 6218,
      "ution": 6219,
      "Ġobed": 6220,
      "Ġbarn": 6221,
      "Ġprofession": 6222,
      "Ġcontr": 6223,
      "Ġclaim": 6224,
      "TH": 6225,
      "Ġapproach": 6226,
      "Ġinj": 6227,
      "Ġsoot": 6228,
      "Ġfrantically": 6229,
      "Ġstead": 6230,
      "Ġboring": 6231,
      "Ġspare": 6232,
      "Ġinvest": 6233,
      "Ġhilt": 6234,
      "Ġfulf": 6235,
      "Ġspat": 6236,
      "loria": 6237,
      "ianc": 6238,
      "ano": 6239,
      "Ġstepping": 6240,
      "Ġdining": 6241,
      "bly": 6242,
      "Ġgreed": 6243,
      "ĠMelanie": 6244,
      "Ġwhipped": 6245,
      "stick": 6246,
      "********************************": 6247,
      "Ġeaten": 6248,
      "aved": 6249,
      "Ġhumiliation": 6250,
      "ĠMeanwhile": 6251,
      "Ġfaded": 6252,
      "Ġstern": 6253,
      "ores": 6254,
      "Ġdeserve": 6255,
      "||||": 6256,
      "ĠMarc": 6257,
      "Ġfurn": 6258,
      "Ġbold": 6259,
      "ĠGuy": 6260,
      "ĠBetty": 6261,
      "Ġtwelve": 6262,
      "Ġswept": 6263,
      "ĠYv": 6264,
      "Ġrow": 6265,
      "Ġguards": 6266,
      "Ġscra": 6267,
      "icles": 6268,
      "ĠOH": 6269,
      "Ġcash": 6270,
      "Ġplump": 6271,
      "oured": 6272,
      "Ġresumed": 6273,
      "ĠAlmost": 6274,
      "ĠGra": 6275,
      "Ġexcitedly": 6276,
      "Ġankle": 6277,
      "Ġcommit": 6278,
      "Ġvigor": 6279,
      "ĠShit": 6280,
      "ĠRic": 6281,
      "Ġdisbel": 6282,
      "Ġdrained": 6283,
      "arc": 6284,
      "ari": 6285,
      "Ġdevil": 6286,
      "Ġyouth": 6287,
      "ĠSant": 6288,
      "cting": 6289,
      "Ġsatisfy": 6290,
      "Ġcommented": 6291,
      "Ġredhead": 6292,
      "Ġsip": 6293,
      "vor": 6294,
      "Ġshown": 6295,
      "Ġdont": 6296,
      "ixture": 6297,
      "ĠPerhaps": 6298,
      "Ġspray": 6299,
      "Ġseparate": 6300,
      "Fine": 6301,
      "Ġfluids": 6302,
      "ĠLexi": 6303,
      "Ġdiscuss": 6304,
      "ĠSec": 6305,
      "ucking": 6306,
      "SE": 6307,
      "ĠDam": 6308,
      "Ġrob": 6309,
      "Ġgoodbye": 6310,
      "Ġproject": 6311,
      "Ġstumbled": 6312,
      "Ġshak": 6313,
      "Ġhardened": 6314,
      ":-": 6315,
      "Ġgarden": 6316,
      "Ġfrozen": 6317,
      "Ġphoto": 6318,
      "Ġsubsided": 6319,
      "Ġ13": 6320,
      "Ġpoked": 6321,
      "Ġcaut": 6322,
      "ĠGloria": 6323,
      "Ġvel": 6324,
      "ĠMac": 6325,
      "Ġauthor": 6326,
      "Ġfashion": 6327,
      "ization": 6328,
      "Ġacted": 6329,
      "Ġdevice": 6330,
      "Ġhymen": 6331,
      "Ġtowels": 6332,
      "Ġengine": 6333,
      "Ġfilm": 6334,
      "Ġpotent": 6335,
      "âĤ¬Â": 6336,
      "tw": 6337,
      "Ġholiday": 6338,
      "Ġkidding": 6339,
      "Ġaddition": 6340,
      "Ġterm": 6341,
      "ĠLee": 6342,
      "Ġpretend": 6343,
      "Ġhairl": 6344,
      "ĠWow": 6345,
      "ference": 6346,
      "Ġremembering": 6347,
      "Ġgrey": 6348,
      "Ġwhispers": 6349,
      "Ġinsane": 6350,
      "adder": 6351,
      "Ġroutine": 6352,
      "Ġlinger": 6353,
      "Ġglo": 6354,
      "Ġunexpected": 6355,
      "Ġshiny": 6356,
      "Ġcheerlead": 6357,
      "Ġglob": 6358,
      "Ġoverwhelming": 6359,
      "addle": 6360,
      "OW": 6361,
      "Ġgrade": 6362,
      "Ġlangu": 6363,
      "Ġspanked": 6364,
      "......": 6365,
      "Ġcups": 6366,
      "Ġjoking": 6367,
      "ĠTammy": 6368,
      "AP": 6369,
      "ĠTyler": 6370,
      "iosity": 6371,
      "Ġbald": 6372,
      "ieve": 6373,
      "Ġrecovered": 6374,
      "ĠHank": 6375,
      "Ġcompared": 6376,
      "Ġteenager": 6377,
      "Ġmercy": 6378,
      "xx": 6379,
      "ooke": 6380,
      "annon": 6381,
      "Ġstammered": 6382,
      "IG": 6383,
      "Ġwhom": 6384,
      "Ġmental": 6385,
      "Ġupright": 6386,
      "Ġapply": 6387,
      "Ġmes": 6388,
      "ĠErica": 6389,
      "Ġprepare": 6390,
      "Ġencourage": 6391,
      "Ġathle": 6392,
      "Ġjoked": 6393,
      "Ġswirled": 6394,
      "Ġexpress": 6395,
      "ifully": 6396,
      "ĠNorm": 6397,
      "Ġdecent": 6398,
      "Ġarrive": 6399,
      "Ġbill": 6400,
      "Ġscan": 6401,
      "ACK": 6402,
      "ĠAND": 6403,
      "ulated": 6404,
      "Ġscen": 6405,
      "Ġholds": 6406,
      "ury": 6407,
      "Ġterror": 6408,
      "Ġtang": 6409,
      "atched": 6410,
      "ational": 6411,
      "Ġriver": 6412,
      "ubb": 6413,
      "Ġpeck": 6414,
      "Ġpit": 6415,
      "Ġdidnt": 6416,
      "Ġgrim": 6417,
      "ify": 6418,
      "Ġclamp": 6419,
      "Ġhandc": 6420,
      "just": 6421,
      "Ġbank": 6422,
      "Ġmission": 6423,
      "isy": 6424,
      "Ġvacation": 6425,
      "Ġwrote": 6426,
      "ĠEva": 6427,
      "Ġawe": 6428,
      "Ġsandw": 6429,
      "Ġhem": 6430,
      "Ġeyed": 6431,
      "Ġinstructions": 6432,
      "Ġrev": 6433,
      "Ġdeliber": 6434,
      "'.": 6435,
      "Ġweather": 6436,
      "raction": 6437,
      "ĠLynn": 6438,
      "ĠIts": 6439,
      "Ġsensed": 6440,
      "Ġtap": 6441,
      "Ġbi": 6442,
      "ĠAlicia": 6443,
      "Ġaim": 6444,
      "ĠBru": 6445,
      "Ġshows": 6446,
      "Ġsettle": 6447,
      "ĠErin": 6448,
      "ĠInd": 6449,
      "ĠDee": 6450,
      "ĠMatthew": 6451,
      "skin": 6452,
      "Ġtrained": 6453,
      "Ġwasted": 6454,
      "Ġdirected": 6455,
      "ĠRen": 6456,
      "inn": 6457,
      "arth": 6458,
      "Ġunus": 6459,
      "Jo": 6460,
      "Ġimpressed": 6461,
      "fits": 6462,
      "ites": 6463,
      "ĠFather": 6464,
      "Ġdying": 6465,
      "Ġboot": 6466,
      "Ġeggs": 6467,
      "Ġitems": 6468,
      "Ġtrigg": 6469,
      "sea": 6470,
      "Ġappearance": 6471,
      "Ġanswers": 6472,
      "Ġtanned": 6473,
      "Ġrand": 6474,
      "ĠMarcus": 6475,
      "ĠEthan": 6476,
      "ĠAlso": 6477,
      "Ġet": 6478,
      "upt": 6479,
      "ĠDoctor": 6480,
      "anny": 6481,
      "errick": 6482,
      "Ġlog": 6483,
      "Ġloads": 6484,
      "MMMM": 6485,
      "Ġstunning": 6486,
      "ĠCle": 6487,
      "Ġconvinced": 6488,
      "Ġareol": 6489,
      "Ġhairs": 6490,
      "Ġbobbed": 6491,
      "Ġspasm": 6492,
      "ĠBrittany": 6493,
      "Ġ''": 6494,
      "Ġhyp": 6495,
      "Ġtucked": 6496,
      "Ġcoating": 6497,
      "Ġactual": 6498,
      "ĠCarla": 6499,
      "Ġgagging": 6500,
      "Ġmagnificent": 6501,
      "Ġnap": 6502,
      "ĠRed": 6503,
      "Ġcooed": 6504,
      "Very": 6505,
      "Ġug": 6506,
      "Ġdamage": 6507,
      "Ġmixture": 6508,
      "Ġwaking": 6509,
      "ĠGOD": 6510,
      "Ġhunger": 6511,
      "Ġcalmly": 6512,
      "ĠApparently": 6513,
      "ĠBrend": 6514,
      "uffed": 6515,
      "Ġsection": 6516,
      "uming": 6517,
      "An": 6518,
      "yy": 6519,
      "Ġheaving": 6520,
      "Ġpuckered": 6521,
      "Ġfeminine": 6522,
      "ĠJohnny": 6523,
      "Ġdownward": 6524,
      "Ġkilling": 6525,
      "Ġharsh": 6526,
      "Ġhistory": 6527,
      "ĠCU": 6528,
      "ĠKing": 6529,
      "rig": 6530,
      "ĠChel": 6531,
      "oning": 6532,
      "Ġreasons": 6533,
      "Ġsigns": 6534,
      "Will": 6535,
      "Ġ~": 6536,
      "?!âĢĿ": 6537,
      "eg": 6538,
      "Ġprogram": 6539,
      "aze": 6540,
      "ĠDean": 6541,
      "Ġpiercing": 6542,
      "One": 6543,
      "Ġinnoc": 6544,
      "Ġcrush": 6545,
      "ĠLarry": 6546,
      "Ġprotested": 6547,
      "ĠMelody": 6548,
      "ĠPulling": 6549,
      "Ġcards": 6550,
      "ĠAur": 6551,
      "Ġnods": 6552,
      "Ġhairless": 6553,
      "Ġanytime": 6554,
      "ĠGl": 6555,
      "Ġending": 6556,
      "----------------------------------------------------------------": 6557,
      "Ġexist": 6558,
      "Ġhopped": 6559,
      "ĠAnne": 6560,
      "ĠEllie": 6561,
      "Ġcalmed": 6562,
      "Ġforming": 6563,
      "izes": 6564,
      "Ġdistracted": 6565,
      "Ġrushing": 6566,
      "Ġcutting": 6567,
      "please": 6568,
      "Ġwheel": 6569,
      "Ġcush": 6570,
      "Ġspank": 6571,
      "ences": 6572,
      "Ġmothers": 6573,
      "rek": 6574,
      "umber": 6575,
      "Ġproperty": 6576,
      "ĠMonica": 6577,
      "Ġattracted": 6578,
      "ĠJenn": 6579,
      "Ġpuffy": 6580,
      "Ġfeatures": 6581,
      "Ġaimed": 6582,
      "Ġpond": 6583,
      "Ġshield": 6584,
      "ĠBrooke": 6585,
      "Ġimagination": 6586,
      "aints": 6587,
      "Holy": 6588,
      "Ġbutter": 6589,
      "osure": 6590,
      "Ġsweetheart": 6591,
      "Ġgirlfriends": 6592,
      "Ġrandom": 6593,
      "Ġstraw": 6594,
      "Ġcuriosity": 6595,
      "Ġtables": 6596,
      "Ġvelv": 6597,
      "Ġfort": 6598,
      "inary": 6599,
      "Ġisland": 6600,
      "Ġcrawl": 6601,
      "Ġcuddled": 6602,
      "ads": 6603,
      "ipe": 6604,
      "Ġtreatment": 6605,
      "Ġain": 6606,
      "Ġswirling": 6607,
      "Ġspilled": 6608,
      "ĠShannon": 6609,
      "father": 6610,
      "Ġshuff": 6611,
      "Ġlaughs": 6612,
      "otte": 6613,
      "Ġunf": 6614,
      "Ġearn": 6615,
      "po": 6616,
      "Ġcaring": 6617,
      "Ġdisbelief": 6618,
      "Ġrav": 6619,
      "hhhhh": 6620,
      "Ġbathing": 6621,
      "Ġtemper": 6622,
      "Ġcupping": 6623,
      "................................": 6624,
      "Ġfinds": 6625,
      "Ġchoked": 6626,
      "zzy": 6627,
      "Ġsloppy": 6628,
      "Ġnodding": 6629,
      "ĠWilliam": 6630,
      "ĠTerry": 6631,
      "ĠWH": 6632,
      "ĠAmelia": 6633,
      "!!âĢĿ": 6634,
      "Ġbriefs": 6635,
      "//": 6636,
      "Ġsin": 6637,
      "Ġspotted": 6638,
      "cellent": 6639,
      "Ġwrest": 6640,
      "âĢ¬": 6641,
      "Ġpoints": 6642,
      "Ġdescribe": 6643,
      "ĠCharles": 6644,
      "ĠTrevor": 6645,
      "Ġfrequ": 6646,
      "Ġinvolunt": 6647,
      "Nothing": 6648,
      "Ġcompet": 6649,
      "Ġcage": 6650,
      "ĠAndrew": 6651,
      "Ġunconscious": 6652,
      "Ġqueen": 6653,
      "Ġbacks": 6654,
      "Ġwithdraw": 6655,
      "Ġlibr": 6656,
      "Ġknuck": 6657,
      "ument": 6658,
      "Ġglancing": 6659,
      "Ġcuffs": 6660,
      "OM": 6661,
      "Ġexplored": 6662,
      "####": 6663,
      "ĠAndy": 6664,
      "ĠVan": 6665,
      "Ġshapely": 6666,
      "Ġfrustrated": 6667,
      "Ġ17": 6668,
      "Ġincrease": 6669,
      "Ġcombined": 6670,
      "Ġtrimmed": 6671,
      "ĠHope": 6672,
      "Ġsell": 6673,
      "Ġattempted": 6674,
      "Ġcrew": 6675,
      "Ġnet": 6676,
      "ĠTrace": 6677,
      "ĠHold": 6678,
      "Ġdeny": 6679,
      "ux": 6680,
      "Ġprin": 6681,
      "Ġdragging": 6682,
      "Ġwandered": 6683,
      "Ġramming": 6684,
      "ĠCody": 6685,
      "ĠKara": 6686,
      "Ġemptied": 6687,
      "ĠJade": 6688,
      "EN": 6689,
      "Ġfondled": 6690,
      "Ġgulped": 6691,
      "..âĢĿ": 6692,
      "Ġdrown": 6693,
      "ĠWhich": 6694,
      "Ġhid": 6695,
      "Ġpatch": 6696,
      "Ġmarks": 6697,
      "Ġsquirm": 6698,
      "Ġswelled": 6699,
      "ender": 6700,
      "Ġquit": 6701,
      "appy": 6702,
      "Ġinterview": 6703,
      "Ġslurping": 6704,
      "iction": 6705,
      "Ġsnake": 6706,
      "Master": 6707,
      "hand": 6708,
      "Ġlearning": 6709,
      "Ġoccup": 6710,
      "Ġult": 6711,
      "Ġwolf": 6712,
      "Ġdrenched": 6713,
      "ĠSister": 6714,
      "Ġpassenger": 6715,
      "ĠDoes": 6716,
      "Ġiron": 6717,
      "Ġkit": 6718,
      "Ġflav": 6719,
      "Ġveins": 6720,
      "Ġsevent": 6721,
      "ĠYet": 6722,
      "Ġuncontrollably": 6723,
      "Ġporch": 6724,
      "Ġcigaret": 6725,
      "pical": 6726,
      "Ġboob": 6727,
      "Ġprivacy": 6728,
      "ĠDoug": 6729,
      "Ġarch": 6730,
      "Ġhorses": 6731,
      "ĠNeither": 6732,
      "atically": 6733,
      "Ġblame": 6734,
      "ĠCeleste": 6735,
      "Ġmidnight": 6736,
      "Ġrequired": 6737,
      "ĠIN": 6738,
      "utting": 6739,
      "Ġbulging": 6740,
      "Ġmasturbated": 6741,
      "ato": 6742,
      "Ġonline": 6743,
      "Ġchapter": 6744,
      "ĠBel": 6745,
      "essions": 6746,
      "pan": 6747,
      "ĠMiles": 6748,
      "Ġstool": 6749,
      "Ġtwist": 6750,
      "Ġdetail": 6751,
      "Ġabuse": 6752,
      "Ġcheating": 6753,
      "Ġsnuggled": 6754,
      "rying": 6755,
      "Ġpudd": 6756,
      "ounds": 6757,
      "Ġlone": 6758,
      "ĠJose": 6759,
      "HHHHHHHH": 6760,
      "Ġstraddling": 6761,
      "Ġcockhead": 6762,
      "elled": 6763,
      "To": 6764,
      "Ġchamp": 6765,
      "asey": 6766,
      "Ġgrunts": 6767,
      "Ġtastes": 6768,
      "warts": 6769,
      "Ġblinked": 6770,
      "Ġwrithed": 6771,
      "ĠSasha": 6772,
      "Ġsele": 6773,
      "Ġanybody": 6774,
      "Ġsquare": 6775,
      "Ġimpaled": 6776,
      "Ġexpensive": 6777,
      "Ġtug": 6778,
      "spot": 6779,
      "ĠBruce": 6780,
      "Mmmmm": 6781,
      "idget": 6782,
      "ĠStanding": 6783,
      "ĠDerek": 6784,
      "Ġtugging": 6785,
      "Ġalley": 6786,
      "Ġsounding": 6787,
      "iversity": 6788,
      "ĠAri": 6789,
      "Ġdove": 6790,
      "Ġobeyed": 6791,
      "Ġvamp": 6792,
      "Ġcred": 6793,
      "ĠZoe": 6794,
      "uine": 6795,
      "Ġcameras": 6796,
      "Ġseemingly": 6797,
      "ela": 6798,
      "Ġwaitress": 6799,
      "Ġshed": 6800,
      "Ġshel": 6801,
      "ament": 6802,
      "unny": 6803,
      "Ġjobs": 6804,
      "ĠâĢ¦âĢĿ": 6805,
      "Ġoccurred": 6806,
      "then": 6807,
      "Ġpaj": 6808,
      "ev": 6809,
      "Ġess": 6810,
      "Ġjumping": 6811,
      "abelle": 6812,
      "under": 6813,
      "Ġvers": 6814,
      "Ġjourney": 6815,
      "ĠSeveral": 6816,
      "Ġfate": 6817,
      "Ġdefe": 6818,
      "ĠHard": 6819,
      "Ġspoken": 6820,
      "Ġstorm": 6821,
      "ĠOther": 6822,
      "Ġdragon": 6823,
      "Ġfridge": 6824,
      "Ġcourage": 6825,
      "Ġaccommod": 6826,
      "Ġbike": 6827,
      "Ġfren": 6828,
      "Ġhappiness": 6829,
      "Ġsecure": 6830,
      "Ġanxious": 6831,
      "ican": 6832,
      "Ġdivorce": 6833,
      "Ġnest": 6834,
      "Ġtearing": 6835,
      "ĠNeville": 6836,
      "Ġchocol": 6837,
      "Ġengulfed": 6838,
      "ĠTracey": 6839,
      "Ġrim": 6840,
      "Ġprec": 6841,
      "Ġdishes": 6842,
      "ĠCharlotte": 6843,
      "Ġune": 6844,
      ".)": 6845,
      "Ġwives": 6846,
      "Ġencouraged": 6847,
      "Ġsurprisingly": 6848,
      "of": 6849,
      "hetic": 6850,
      "Ġetern": 6851,
      "Ġfitting": 6852,
      "ĠLup": 6853,
      "ĠKy": 6854,
      "ours": 6855,
      "Ġplane": 6856,
      "Ġshadow": 6857,
      "Ġkicking": 6858,
      "Ġprogress": 6859,
      "Ġadmiring": 6860,
      "Ġvulner": 6861,
      "Ġsobbed": 6862,
      "Ġconce": 6863,
      "Ġdisappear": 6864,
      "known": 6865,
      "Ġstars": 6866,
      "Ġcurtain": 6867,
      "Ġpout": 6868,
      "ĠJonah": 6869,
      "Ġloss": 6870,
      "Ġclimaxed": 6871,
      "ĠHogwarts": 6872,
      "Ġoper": 6873,
      "Ġcant": 6874,
      "Ġnaturally": 6875,
      "Ġgrateful": 6876,
      "ĠElaine": 6877,
      "Ġbothered": 6878,
      "Ġcooking": 6879,
      "ĠSex": 6880,
      "ĠRod": 6881,
      "Ġconcentrate": 6882,
      "rel": 6883,
      "Ġpride": 6884,
      "Ġdresser": 6885,
      "Ġspinning": 6886,
      "ĠMorgan": 6887,
      "Ġathletic": 6888,
      "met": 6889,
      "eline": 6890,
      "Ġforgive": 6891,
      "da": 6892,
      "ĠHal": 6893,
      "Ġshorter": 6894,
      "Ġjud": 6895,
      "Ġbulb": 6896,
      "Ġdisappointment": 6897,
      "Ġimpressive": 6898,
      "Ġsideways": 6899,
      "ĠThomas": 6900,
      "Ġdescend": 6901,
      "Ġimpro": 6902,
      "Ġpurch": 6903,
      "Ġgenuine": 6904,
      "ĠCale": 6905,
      "mates": 6906,
      "Ġwow": 6907,
      "ĠDerrick": 6908,
      "Ġfifty": 6909,
      "ĠTears": 6910,
      "iana": 6911,
      "formed": 6912,
      "can": 6913,
      "Ġcrou": 6914,
      "ilia": 6915,
      "Ġclung": 6916,
      "Ġrounded": 6917,
      "ĠSaid": 6918,
      "Ġsmack": 6919,
      "Ġmanager": 6920,
      "Ġeverybody": 6921,
      "Ġtraced": 6922,
      "Ġconvince": 6923,
      "Ġgeneral": 6924,
      "Ġdeveloped": 6925,
      "Ġsteam": 6926,
      "Ġbreeze": 6927,
      "Ġwiz": 6928,
      "Ġpsy": 6929,
      "Ġsheath": 6930,
      "ĠShr": 6931,
      "Ġlanguage": 6932,
      "Ġmotions": 6933,
      "Every": 6934,
      "Ġrapt": 6935,
      "ĠCra": 6936,
      "Ġstiffened": 6937,
      "Ġreport": 6938,
      "!'": 6939,
      "Ġlovingly": 6940,
      "bably": 6941,
      "Ġpillows": 6942,
      "Ġsqueal": 6943,
      "Ġwiggling": 6944,
      "dick": 6945,
      "rils": 6946,
      "gl": 6947,
      "unks": 6948,
      "agger": 6949,
      "ĠHey": 6950,
      "ĠWord": 6951,
      "Ġglowing": 6952,
      "Ġentertain": 6953,
      "Ġappo": 6954,
      "Ġfreely": 6955,
      "Ġfrowned": 6956,
      "Ġador": 6957,
      "Ġencounter": 6958,
      "Ġlustful": 6959,
      "long": 6960,
      "Ġplat": 6961,
      "Ġlaund": 6962,
      "Ġpackage": 6963,
      "robe": 6964,
      "Ġstudying": 6965,
      "Ġchanges": 6966,
      "Ġunlocked": 6967,
      "ĠCould": 6968,
      "Ġglimp": 6969,
      "Ġdefl": 6970,
      "Ġunbel": 6971,
      "ators": 6972,
      "ĠDom": 6973,
      "Ġwiping": 6974,
      "Ġglimpse": 6975,
      "Ġstatement": 6976,
      "Ġbrand": 6977,
      "ĠHeath": 6978,
      "Ġtrunk": 6979,
      "Ġorange": 6980,
      "aneously": 6981,
      "Ġevidence": 6982,
      "UT": 6983,
      "Ġprovide": 6984,
      "Ġwhimpering": 6985,
      "Ġequip": 6986,
      "Ġglared": 6987,
      "Ġmomentarily": 6988,
      "ĠCrystal": 6989,
      "Ġtiss": 6990,
      "Ġreceive": 6991,
      "Ġpowers": 6992,
      "Ġached": 6993,
      "Ġdu": 6994,
      "Ġhopefully": 6995,
      "xy": 6996,
      "Ġrever": 6997,
      "Ġbrings": 6998,
      "ĠShawn": 6999,
      "Ġrage": 7000,
      "Ġshave": 7001,
      "Ġcontem": 7002,
      "Ġformer": 7003,
      "Ġsac": 7004,
      "Ġentry": 7005,
      "Ġdreamed": 7006,
      "Ġfootst": 7007,
      "Ġsprayed": 7008,
      "Ġprovided": 7009,
      "ĠIsa": 7010,
      "Ġtentacle": 7011,
      "Ġcurve": 7012,
      "Ġregister": 7013,
      "Ġsurrounding": 7014,
      "Ġattacked": 7015,
      "Ġcrept": 7016,
      "Ġpalms": 7017,
      "Ġma": 7018,
      "Ġabrupt": 7019,
      "Ġembarrassing": 7020,
      "don": 7021,
      "urable": 7022,
      "Ġsocial": 7023,
      "Ġjudge": 7024,
      "Ġeyebrows": 7025,
      "ĠYvette": 7026,
      "Ġloins": 7027,
      "Ġseparated": 7028,
      "quired": 7029,
      "Ġpretending": 7030,
      "Ġinternet": 7031,
      "ĠJu": 7032,
      "ĠBry": 7033,
      "istry": 7034,
      "Ġpassage": 7035,
      "Ġpapers": 7036,
      "Ġugly": 7037,
      "TER": 7038,
      "Ġcomfor": 7039,
      "aker": 7040,
      "Ġleader": 7041,
      "Ġangrily": 7042,
      "ĠMer": 7043,
      "ĠSel": 7044,
      "Ġorgasmed": 7045,
      "Ġcombination": 7046,
      "Ġdarted": 7047,
      "priate": 7048,
      "Ġflir": 7049,
      "Ġskills": 7050,
      "Ġowned": 7051,
      "ĠAlisha": 7052,
      "ĠRonnie": 7053,
      "Ġphysically": 7054,
      "Ġswayed": 7055,
      "ĠQuick": 7056,
      "ciously": 7057,
      "Ġhardening": 7058,
      "aper": 7059,
      "Ġstrike": 7060,
      "________________________________": 7061,
      "ĠTonks": 7062,
      "WW": 7063,
      "ider": 7064,
      "Ġawa": 7065,
      "Ke": 7066,
      "Ġhardness": 7067,
      "Ġnerve": 7068,
      "Ġdude": 7069,
      "ĠLeah": 7070,
      "sequ": 7071,
      "Ġequipment": 7072,
      "Ġuntied": 7073,
      "Ġechoed": 7074,
      "Ġsea": 7075,
      "ĠDawn": 7076,
      "Ġcharm": 7077,
      "Ġvoices": 7078,
      "Ġdangling": 7079,
      "Ġexit": 7080,
      "Ġneighborhood": 7081,
      "Ġtex": 7082,
      "orious": 7083,
      "âĢĿ?": 7084,
      "Ġcompan": 7085,
      "Ġimagining": 7086,
      "Ġarranged": 7087,
      "Ġcough": 7088,
      "Ġfuckin": 7089,
      "Ġstudied": 7090,
      "Ġ40": 7091,
      "arse": 7092,
      "Ġum": 7093,
      "Ġprice": 7094,
      "Ġtentacles": 7095,
      "Mmmm": 7096,
      "ĠRoy": 7097,
      "Ġawak": 7098,
      "!!!âĢĿ": 7099,
      "Ġsentence": 7100,
      "Ġ69": 7101,
      "Ġrump": 7102,
      "ĠDeana": 7103,
      "Ġholl": 7104,
      "ibition": 7105,
      "Ġdreaming": 7106,
      "Ġclicked": 7107,
      "ivid": 7108,
      "ĠLupin": 7109,
      "min": 7110,
      "Ġtax": 7111,
      "Ġoption": 7112,
      "Ġchallenge": 7113,
      "ursday": 7114,
      "Ġton": 7115,
      "Ġsheep": 7116,
      "imate": 7117,
      "Ġgoddess": 7118,
      "ĠLydia": 7119,
      "ĠUnder": 7120,
      "Ġmisch": 7121,
      "77": 7122,
      "Ġthrob": 7123,
      "Ġaffection": 7124,
      "itted": 7125,
      "Ġviolent": 7126,
      "Ġseductively": 7127,
      "Ġcorrid": 7128,
      "Ġscooted": 7129,
      "Ġpaw": 7130,
      "Ġgall": 7131,
      "ĠTrish": 7132,
      "thia": 7133,
      "Ġexpose": 7134,
      "Ġtaller": 7135,
      "Ġban": 7136,
      "ĠChuck": 7137,
      "ĠMarg": 7138,
      "ĠJackson": 7139,
      "Ġadmired": 7140,
      "phone": 7141,
      "Ġdrip": 7142,
      "Ġlubed": 7143,
      "Ġsavoring": 7144,
      "Ġbird": 7145,
      "Ġthri": 7146,
      "thony": 7147,
      "Ġshuddering": 7148,
      "Ġdisgust": 7149,
      "IL": 7150,
      "Ġforb": 7151,
      "Ġcomplex": 7152,
      "Ġincestuous": 7153,
      "Ġpartially": 7154,
      "Ġrelent": 7155,
      "Ġrefer": 7156,
      "Ġissue": 7157,
      "Ġabused": 7158,
      "ĠLind": 7159,
      "Ġchann": 7160,
      "Ġstraightened": 7161,
      "looking": 7162,
      "Ġhouses": 7163,
      "Ġhover": 7164,
      "real": 7165,
      "ĠPar": 7166,
      "Ġparties": 7167,
      "Ġamaze": 7168,
      "Ġchocolate": 7169,
      "idently": 7170,
      "Ġlaundry": 7171,
      "ni": 7172,
      "this": 7173,
      "Ġchoking": 7174,
      "Ġneare": 7175,
      "osen": 7176,
      "Ġpinch": 7177,
      "Ġnerves": 7178,
      "Mor": 7179,
      "via": 7180,
      "Ġsomebody": 7181,
      "Ġfence": 7182,
      "Ġtorment": 7183,
      "Ġactivities": 7184,
      "ĠGabriella": 7185,
      "iers": 7186,
      "Ġlingerie": 7187,
      "rier": 7188,
      "ĠKend": 7189,
      "ĠDa": 7190,
      "Ġskirts": 7191,
      "Ġmelted": 7192,
      "CH": 7193,
      "Ġmanip": 7194,
      "Ġpretended": 7195,
      "Ġcircled": 7196,
      "chee": 7197,
      "ĠCasey": 7198,
      "Ġtee": 7199,
      "Ġoblig": 7200,
      "ĠWil": 7201,
      "Ġdepos": 7202,
      "Ġpenetrate": 7203,
      "Ġlibrary": 7204,
      "ĠHailey": 7205,
      "ĠAsian": 7206,
      "ĠKnowing": 7207,
      "Un": 7208,
      "Ġforty": 7209,
      "Ġhose": 7210,
      "Ġlus": 7211,
      "Ġflush": 7212,
      "Ġprincess": 7213,
      "DD": 7214,
      "Ġprecious": 7215,
      "Ġremar": 7216,
      "uttering": 7217,
      "Ġmerely": 7218,
      "Ġstair": 7219,
      "hings": 7220,
      "ĠSomeone": 7221,
      "Ġclimbing": 7222,
      "Ġvillage": 7223,
      "Ġoverwhelmed": 7224,
      "Ġimpl": 7225,
      "Ġimpat": 7226,
      "Ġdresses": 7227,
      "Ġlimit": 7228,
      "urg": 7229,
      "Ġgle": 7230,
      "ĠJere": 7231,
      "Ġannoyed": 7232,
      "Ġpopular": 7233,
      "Ġpulsating": 7234,
      "ĠAsiara": 7235,
      "Ġhumans": 7236,
      "Ġblurted": 7237,
      "Ġpreparing": 7238,
      "Ġplunging": 7239,
      "Ġlaz": 7240,
      "ĠSH": 7241,
      "Ġdiscom": 7242,
      "isten": 7243,
      "Ġfavour": 7244,
      "Ġradi": 7245,
      "Ġunbeliev": 7246,
      "ogan": 7247,
      "Ġrecognize": 7248,
      "Ġhomework": 7249,
      "Ġcasual": 7250,
      "Ġassume": 7251,
      "xual": 7252,
      "Ġrate": 7253,
      "Ġbuddy": 7254,
      "Ġprofessional": 7255,
      "illa": 7256,
      "Ġages": 7257,
      "Ġpainted": 7258,
      "Ġ50": 7259,
      "Ġveh": 7260,
      "iven": 7261,
      "ĠSy": 7262,
      "Ġminds": 7263,
      "Ġneighbors": 7264,
      "Ġkinky": 7265,
      "gggg": 7266,
      "Ġflooding": 7267,
      "ĠPlus": 7268,
      "Ġhott": 7269,
      "iable": 7270,
      "Ġhanding": 7271,
      "ĠThursday": 7272,
      "ĠTime": 7273,
      "amas": 7274,
      "Ġtickling": 7275,
      "Ġaroma": 7276,
      "Ġphotog": 7277,
      "Ġack": 7278,
      "Ġbackground": 7279,
      "Ġlocking": 7280,
      "eeeeeeee": 7281,
      "Ġidiot": 7282,
      "Ġtough": 7283,
      "Ġcave": 7284,
      "arch": 7285,
      "Ġbeers": 7286,
      "Ġsake": 7287,
      "Ġchains": 7288,
      "Ġplayer": 7289,
      "Ġconfirmed": 7290,
      "Ġintoxic": 7291,
      "Ġsearched": 7292,
      "ĠTerri": 7293,
      "``": 7294,
      "Ġmodel": 7295,
      "ians": 7296,
      "Ġcruel": 7297,
      "Ġjoining": 7298,
      "tr": 7299,
      "wor": 7300,
      "iety": 7301,
      "mare": 7302,
      "Ġgrace": 7303,
      "Ġstrained": 7304,
      "Ġquivered": 7305,
      "pting": 7306,
      "ĠCarly": 7307,
      "ĠAnthony": 7308,
      "Ġsimult": 7309,
      "Ġspasms": 7310,
      "Ġcoach": 7311,
      "Ġproduced": 7312,
      "Ġbehavior": 7313,
      "ushes": 7314,
      "Ġsurge": 7315,
      "Ġchatted": 7316,
      "Ġrule": 7317,
      "Ġchatting": 7318,
      "ĠTurning": 7319,
      "Ġguiding": 7320,
      "Ġ100": 7321,
      "Ġclassroom": 7322,
      "eness": 7323,
      "Ġarching": 7324,
      "luded": 7325,
      "aks": 7326,
      "ays": 7327,
      "Ġgrowl": 7328,
      "ĠLori": 7329,
      "Ġcracked": 7330,
      "Ġclient": 7331,
      "Ġelbow": 7332,
      "Ġcrop": 7333,
      "ef": 7334,
      "Ġtightening": 7335,
      "uti": 7336,
      "ĠMick": 7337,
      "Ġnoted": 7338,
      "Ġtwirl": 7339,
      "Ġrapid": 7340,
      "case": 7341,
      "iko": 7342,
      "olet": 7343,
      "Ġpresented": 7344,
      "Ġacknow": 7345,
      "ĠMill": 7346,
      "Ġfondle": 7347,
      "ĠSw": 7348,
      "ĠLuckily": 7349,
      "ĠOF": 7350,
      "ĠBrenda": 7351,
      "wd": 7352,
      "ĠLo": 7353,
      "Ġunusual": 7354,
      "After": 7355,
      "ĠReaching": 7356,
      "Ġautom": 7357,
      "Ġgushed": 7358,
      "ĠMag": 7359,
      "Ġromantic": 7360,
      "Ġunison": 7361,
      "ĠRobbie": 7362,
      "yal": 7363,
      "ĠGreat": 7364,
      "Ġdiscover": 7365,
      "Ġfootsteps": 7366,
      "oted": 7367,
      "Ġstrand": 7368,
      "ĠRey": 7369,
      "shit": 7370,
      "Ġfriction": 7371,
      "Ġach": 7372,
      "Ġnut": 7373,
      "rix": 7374,
      "Ġdisp": 7375,
      "Ġmoisture": 7376,
      "inion": 7377,
      "Nice": 7378,
      "Ġpage": 7379,
      "Ġripping": 7380,
      "ĠCapt": 7381,
      "Ġsnap": 7382,
      "Ġdrugs": 7383,
      "Ġcustomers": 7384,
      "Ġsixteen": 7385,
      "Ġnin": 7386,
      "Ġmock": 7387,
      "oop": 7388,
      "ĠShel": 7389,
      "riff": 7390,
      "ĠMum": 7391,
      "ĠWor": 7392,
      "Ġawful": 7393,
      "ĠAna": 7394,
      "Ġreception": 7395,
      "Ġlord": 7396,
      "Ġgray": 7397,
      "Ġperf": 7398,
      "Ġmature": 7399,
      "Ġpatient": 7400,
      "Ġsharply": 7401,
      "Ġembraced": 7402,
      "OP": 7403,
      "hi": 7404,
      "Ġsubmit": 7405,
      "Ġscrewed": 7406,
      "Ġnibbled": 7407,
      "Ġamazement": 7408,
      "Ġthicker": 7409,
      "Ġexited": 7410,
      "osition": 7411,
      "sha": 7412,
      "ĠWhatever": 7413,
      "ĠâĢĶ": 7414,
      "Ġchosen": 7415,
      "ĠJohnson": 7416,
      "Ġjoint": 7417,
      "ĠScar": 7418,
      "ĠShruti": 7419,
      "Ġluscious": 7420,
      "..\"": 7421,
      "Ġshining": 7422,
      "acle": 7423,
      "Ġruin": 7424,
      "Ġplayful": 7425,
      "Ġprotrud": 7426,
      "Ġequally": 7427,
      "Ġemerged": 7428,
      "ĠIsaac": 7429,
      "Ġlately": 7430,
      "Ġgear": 7431,
      "agers": 7432,
      "Ġtelevision": 7433,
      "Ġsenior": 7434,
      "Ġmoms": 7435,
      "Ġpleasurable": 7436,
      "Ġskill": 7437,
      "Ġhal": 7438,
      "ĠChelsea": 7439,
      "Ġphall": 7440,
      "Ġdiscomfort": 7441,
      "issy": 7442,
      "Ġtremble": 7443,
      "Ġtenderly": 7444,
      "Ġdawn": 7445,
      "ĠCat": 7446,
      "ĠEs": 7447,
      "Ġairport": 7448,
      "Ġpunch": 7449,
      "Ġcrap": 7450,
      "amber": 7451,
      "Ġbackside": 7452,
      "Ġquarter": 7453,
      "pa": 7454,
      "olted": 7455,
      "Ġsluts": 7456,
      "20": 7457,
      "wen": 7458,
      "ĠNina": 7459,
      "Ġfrightened": 7460,
      "Ġwings": 7461,
      "Ġsweating": 7462,
      "Ġlowering": 7463,
      "ology": 7464,
      "REA": 7465,
      "Ġexpand": 7466,
      "Ġexperiment": 7467,
      "ja": 7468,
      "Ġhits": 7469,
      "rod": 7470,
      "Ġcouples": 7471,
      "Ġhello": 7472,
      "good": 7473,
      "Ġlewd": 7474,
      "gu": 7475,
      "Ġsmeared": 7476,
      "ĠCall": 7477,
      "Ġmagical": 7478,
      "Ġclamps": 7479,
      "Ġstirred": 7480,
      "Ġinvite": 7481,
      "-âĢĿ": 7482,
      "Ġample": 7483,
      "Ġruined": 7484,
      "Ġbleeding": 7485,
      "Ġreceiving": 7486,
      "Ġmodest": 7487,
      "Ġoccasional": 7488,
      "Ġnotes": 7489,
      "ani": 7490,
      "Ġmeasure": 7491,
      "Ġspots": 7492,
      "Ġgentleman": 7493,
      "ĠDark": 7494,
      "Ġinsert": 7495,
      "Ġcapable": 7496,
      "Ġribs": 7497,
      "Ġvulnerable": 7498,
      "Ġcheap": 7499,
      "Ġnightmare": 7500,
      "Ġgiggles": 7501,
      "Suck": 7502,
      "ĠSal": 7503,
      "Ġbars": 7504,
      "Ġsteadily": 7505,
      "ĠSeth": 7506,
      "Ġclue": 7507,
      "Ġcompleted": 7508,
      "Ġsaf": 7509,
      "Ġattitude": 7510,
      "Ġrewarded": 7511,
      "ĠNathan": 7512,
      "Ġcrim": 7513,
      "vere": 7514,
      "Ġrent": 7515,
      "ĠTab": 7516,
      "ulate": 7517,
      "Ġ36": 7518,
      "Ġrepeat": 7519,
      "ĠGetting": 7520,
      "Ġactivity": 7521,
      "ĠSorry": 7522,
      "place": 7523,
      "Ġcomplied": 7524,
      "sized": 7525,
      "Ġsuspected": 7526,
      "ĠCyn": 7527,
      "nal": 7528,
      "vert": 7529,
      "ĠSheila": 7530,
      "Ġduty": 7531,
      "Harry": 7532,
      "Ġspect": 7533,
      "ibling": 7534,
      "Ġforeskin": 7535,
      "ser": 7536,
      "Ġleant": 7537,
      "ĠCam": 7538,
      "ĠDA": 7539,
      "Ġdriven": 7540,
      "Ġtransp": 7541,
      "fucking": 7542,
      "Ġstress": 7543,
      "ĠBri": 7544,
      "Ġdaily": 7545,
      "accid": 7546,
      "10": 7547,
      "Ġhey": 7548,
      "arted": 7549,
      "pack": 7550,
      "suit": 7551,
      "Ġbrains": 7552,
      "Ġlonely": 7553,
      "EEEE": 7554,
      "Ġweapon": 7555,
      "Ġmagazine": 7556,
      "XX": 7557,
      "Ġsly": 7558,
      "Ġfol": 7559,
      "Ġcums": 7560,
      "Ġache": 7561,
      "++++": 7562,
      "ĠBoy": 7563,
      "ĠAli": 7564,
      "ĠJanie": 7565,
      "alph": 7566,
      "Ġdirections": 7567,
      "uuuu": 7568,
      "Ġgreatest": 7569,
      "Ġteachers": 7570,
      "Ġconvulsed": 7571,
      "ko": 7572,
      "ĠCont": 7573,
      "Ġdem": 7574,
      "ĠChad": 7575,
      "Ġgrasping": 7576,
      "ĠLady": 7577,
      "Ġteaching": 7578,
      "Ġbucket": 7579,
      "Ġexception": 7580,
      "ulation": 7581,
      "Ġsarc": 7582,
      "Ġgroping": 7583,
      "Ġvibrating": 7584,
      "Ġpuzzled": 7585,
      "Ġdelivered": 7586,
      "Ġspilling": 7587,
      "Ġflower": 7588,
      "Ġexperiences": 7589,
      "ĠClara": 7590,
      "Ġmesmer": 7591,
      "Cum": 7592,
      "Ġdiscussed": 7593,
      "Ġapologize": 7594,
      "Ġhealthy": 7595,
      "Ġneeding": 7596,
      "ĠJoanne": 7597,
      "Ġsecrets": 7598,
      "RE": 7599,
      "ĠSyl": 7600,
      "?âĢĿ,": 7601,
      "ĠAllison": 7602,
      "Ġeduc": 7603,
      "!!\"": 7604,
      "Ġflashing": 7605,
      "Ġ24": 7606,
      "ront": 7607,
      "icated": 7608,
      "ĠFaith": 7609,
      "Ġgathering": 7610,
      "rog": 7611,
      "Ġvic": 7612,
      "---": 7613,
      "Ġexha": 7614,
      "Ġtickled": 7615,
      "Ġinitial": 7616,
      "Shut": 7617,
      "Ġfierce": 7618,
      "Mr": 7619,
      "Ġgross": 7620,
      "Ġignoring": 7621,
      "ĠLeslie": 7622,
      "rete": 7623,
      "Ġnect": 7624,
      "ĠGive": 7625,
      "ĠWhite": 7626,
      "ellig": 7627,
      "Ġsopping": 7628,
      "Ġfleshy": 7629,
      "Ġgyr": 7630,
      "ĠNOT": 7631,
      "Ġjail": 7632,
      "ĠBethany": 7633,
      "Ġbrutal": 7634,
      "Ġbump": 7635,
      "Ġoutline": 7636,
      "Ġareas": 7637,
      "Ġbrow": 7638,
      "hold": 7639,
      "Ġshaven": 7640,
      "Ġsigned": 7641,
      "Ġsoothing": 7642,
      "ĠLogan": 7643,
      "Ġmonst": 7644,
      "Ġdraped": 7645,
      "Ġslimy": 7646,
      "Ġtwe": 7647,
      "ĠKer": 7648,
      "Ġdread": 7649,
      "Ġperman": 7650,
      "Great": 7651,
      "Ġdescribed": 7652,
      "Ġinvestig": 7653,
      "Ġexquis": 7654,
      "Ġpopping": 7655,
      "Ġfail": 7656,
      "ali": 7657,
      "Ġ..": 7658,
      "Ġmile": 7659,
      "Ġmax": 7660,
      "ĠEdd": 7661,
      "ID": 7662,
      "Ġprod": 7663,
      "ival": 7664,
      "Ġtapped": 7665,
      "Ġsessions": 7666,
      "ourse": 7667,
      "ĠScarlet": 7668,
      "Ġrack": 7669,
      "Ġsaving": 7670,
      "Ġswam": 7671,
      "ala": 7672,
      "Ġthru": 7673,
      "Ġinvitation": 7674,
      "ĠChristy": 7675,
      "Ġmas": 7676,
      "Ġharden": 7677,
      "Ġbottles": 7678,
      "Ġimages": 7679,
      "Ġridic": 7680,
      "Ġlou": 7681,
      "aries": 7682,
      "Ġeld": 7683,
      "Ġclo": 7684,
      "Ġsatisfying": 7685,
      "Ġoriginal": 7686,
      "Ġcircumst": 7687,
      "ye": 7688,
      "Ġchill": 7689,
      "Ġafford": 7690,
      "ĠCheryl": 7691,
      "rous": 7692,
      "Ġemail": 7693,
      "Ġexercise": 7694,
      "Ġnectar": 7695,
      "erson": 7696,
      "Ġproudly": 7697,
      "Ġcampus": 7698,
      "II": 7699,
      "Ooh": 7700,
      "Ġfever": 7701,
      "Ġalien": 7702,
      "ĠSand": 7703,
      "Or": 7704,
      "rol": 7705,
      "Ġcondoms": 7706,
      "Ġclutching": 7707,
      "Ġyelped": 7708,
      "mend": 7709,
      "ĠFat": 7710,
      "Ġgrandmother": 7711,
      "ĠTao": 7712,
      "Ġcreep": 7713,
      "Ġabruptly": 7714,
      "Ġ[": 7715,
      "Ġlipstick": 7716,
      "ĠTravis": 7717,
      "Ġsource": 7718,
      "yeah": 7719,
      "Ġterms": 7720,
      "Ġsurged": 7721,
      "Ġcurse": 7722,
      "Ġbowed": 7723,
      "Ġdrying": 7724,
      "Some": 7725,
      "Ġquestioned": 7726,
      "ĠCynthia": 7727,
      "Ġlacy": 7728,
      "apan": 7729,
      "ĠStr": 7730,
      "ĠKeep": 7731,
      "NN": 7732,
      "Ġbetr": 7733,
      "âĢ¦.âĢĿ": 7734,
      "ĠAM": 7735,
      "Ġadmire": 7736,
      "Ġfeeding": 7737,
      "Ġpierced": 7738,
      "Ġdipped": 7739,
      "ĠÂ": 7740,
      "Ġconnection": 7741,
      "Ġeternity": 7742,
      "Ġsibling": 7743,
      "Ġfemales": 7744,
      "ĠVeron": 7745,
      "ĠAdrian": 7746,
      "ĠMadam": 7747,
      "Ġshouting": 7748,
      "Ġwaving": 7749,
      "Ġhesitate": 7750,
      "Ġparticip": 7751,
      "Ġmotel": 7752,
      "asting": 7753,
      "Ġneatly": 7754,
      "LEA": 7755,
      "Ooo": 7756,
      "Ġpic": 7757,
      "Ġrecent": 7758,
      "Ġpenetrating": 7759,
      "cean": 7760,
      "Ġassistant": 7761,
      "ĠRock": 7762,
      "Ġenem": 7763,
      "Ġawkwardly": 7764,
      "Ġadults": 7765,
      "Ġshade": 7766,
      "Ġintrig": 7767,
      "Ġcigarette": 7768,
      "Ġopt": 7769,
      "Ġpotion": 7770,
      "usty": 7771,
      "Ġsets": 7772,
      "Ġshadows": 7773,
      "ĠEnd": 7774,
      "Ġsplashed": 7775,
      "uesday": 7776,
      "Ġlawy": 7777,
      "ache": 7778,
      "Ġflaccid": 7779,
      "Ġ25": 7780,
      "Ġtightness": 7781,
      "Ġspurting": 7782,
      "Give": 7783,
      "NO": 7784,
      "Ġfruit": 7785,
      "ĠLong": 7786,
      "Ġasses": 7787,
      "Ġlubricated": 7788,
      "book": 7789,
      "ulating": 7790,
      "Ġcomplained": 7791,
      "',": 7792,
      "nis": 7793,
      "ĠJeremy": 7794,
      "Ġniece": 7795,
      "Ġdiss": 7796,
      "Ġsecured": 7797,
      "Ġnumbers": 7798,
      "Ġaccord": 7799,
      "itches": 7800,
      "Ġcollected": 7801,
      "Ġrarely": 7802,
      "Ġsped": 7803,
      "Ġinhaled": 7804,
      "anor": 7805,
      "Ġfamil": 7806,
      "Ġtrance": 7807,
      "Ġpattern": 7808,
      "ĠSonia": 7809,
      "ĠAmerican": 7810,
      "Ġmort": 7811,
      "erie": 7812,
      "Ġrestroom": 7813,
      "leen": 7814,
      "ĠKar": 7815,
      "ggie": 7816,
      "Ġfreedom": 7817,
      "ntil": 7818,
      "Ġclosest": 7819,
      "ELL": 7820,
      "Ġbind": 7821,
      "Ġdecor": 7822,
      "Ġspurted": 7823,
      "Ġgestured": 7824,
      "Ġrapture": 7825,
      "ĠDiana": 7826,
      "ĠWatching": 7827,
      "unior": 7828,
      "ĠLil": 7829,
      "Ġloosened": 7830,
      "Ġbones": 7831,
      "Ġfancy": 7832,
      "ĠVery": 7833,
      "ĠGeorg": 7834,
      "Ġsleeve": 7835,
      "Ġward": 7836,
      "ira": 7837,
      "acon": 7838,
      "ĠNate": 7839,
      "ek": 7840,
      "ĠWed": 7841,
      "Ġlimits": 7842,
      "Ġcorridor": 7843,
      "Ġtossing": 7844,
      "chan": 7845,
      "Ġliking": 7846,
      "Ġmatched": 7847,
      "rees": 7848,
      "ĠEmilia": 7849,
      "arlene": 7850,
      "Ġthreatened": 7851,
      "Ġnibbling": 7852,
      "Baby": 7853,
      "Ġdrooling": 7854,
      "Ġfellow": 7855,
      "Ġaccompl": 7856,
      "Ġ:": 7857,
      "Ġsunk": 7858,
      "Ġbitches": 7859,
      "ĠThings": 7860,
      "Ġmouthful": 7861,
      "Ġdeserved": 7862,
      "cheeks": 7863,
      "Ġheated": 7864,
      "ata": 7865,
      "Ġhonor": 7866,
      "Ġpuddle": 7867,
      "ĠSitting": 7868,
      "Ġjammed": 7869,
      "isc": 7870,
      "ĠLast": 7871,
      "ourt": 7872,
      "Ġglorious": 7873,
      "Ġfists": 7874,
      "Ġpuppy": 7875,
      "ĠJapan": 7876,
      "Ġinsist": 7877,
      "Ġstreets": 7878,
      "ĠVeronica": 7879,
      "Ġhumped": 7880,
      "Ġfalls": 7881,
      "Ġtopless": 7882,
      "Ġnost": 7883,
      "ĠThrough": 7884,
      "bud": 7885,
      "Ġah": 7886,
      "Ġpartners": 7887,
      "erman": 7888,
      "Ġrocks": 7889,
      "Ġprofessor": 7890,
      "At": 7891,
      "Honey": 7892,
      "omb": 7893,
      "Ġbabies": 7894,
      "Ġcredit": 7895,
      "inched": 7896,
      "Ġhill": 7897,
      "Ġant": 7898,
      "raph": 7899,
      "Ġworkout": 7900,
      "Ġobscene": 7901,
      "Ġfu": 7902,
      "ĠCor": 7903,
      "Ġcurly": 7904,
      "Ġstreaming": 7905,
      "ĠHolding": 7906,
      "spect": 7907,
      "uce": 7908,
      "ĠBarbie": 7909,
      "Ġwhined": 7910,
      "Ġwatches": 7911,
      "Ġtray": 7912,
      "itable": 7913,
      "imm": 7914,
      "ĠTuesday": 7915,
      "Ġfluttered": 7916,
      "Ġplanet": 7917,
      "ĠColin": 7918,
      "ĠVanessa": 7919,
      "reet": 7920,
      "Ġrin": 7921,
      "Ġkinds": 7922,
      "Ġexcellent": 7923,
      "Ġcane": 7924,
      "Ġcurrently": 7925,
      "viously": 7926,
      "Ġnarr": 7927,
      "Ġarrest": 7928,
      "ordan": 7929,
      "Ġcreatures": 7930,
      "Ġreflection": 7931,
      "Ġthreesome": 7932,
      "Ġuncertain": 7933,
      "Ġscooped": 7934,
      "Ġmischiev": 7935,
      "sa": 7936,
      "iona": 7937,
      "ounded": 7938,
      "Ġobliv": 7939,
      "Ġthrilled": 7940,
      "Ġfert": 7941,
      "Ġclients": 7942,
      "ĠNad": 7943,
      "ĠMoving": 7944,
      "Ġadvice": 7945,
      "Ġloaded": 7946,
      "Ġskimp": 7947,
      "Ġsimultaneously": 7948,
      "ĠJudy": 7949,
      "Ġbeds": 7950,
      "Ġforwards": 7951,
      "Ġcharacter": 7952,
      "Tr": 7953,
      "Ġeyel": 7954,
      "Ġreflex": 7955,
      "Ġmounds": 7956,
      "Ġsafety": 7957,
      "Ġnoon": 7958,
      "Ġpills": 7959,
      "Ġshallow": 7960,
      "Ġenvelop": 7961,
      "Ġdepartment": 7962,
      "Ġbanging": 7963,
      "ĠCaptain": 7964,
      "anc": 7965,
      "Ġclick": 7966,
      "Ġmentally": 7967,
      "Ġperformance": 7968,
      "ĠKathie": 7969,
      "ĠSomehow": 7970,
      "Ġshrieked": 7971,
      "ST": 7972,
      "Ġgain": 7973,
      "Ġsweater": 7974,
      "Ġlocation": 7975,
      "Ġincluded": 7976,
      "Keep": 7977,
      "ĠHigh": 7978,
      "Ġmotor": 7979,
      "Ġpsych": 7980,
      "ooled": 7981,
      "Ġuseless": 7982,
      "Ġenjoyment": 7983,
      "Ġpunched": 7984,
      "Ġsprang": 7985,
      "ĠIan": 7986,
      "Ġtrace": 7987,
      "Ġcorp": 7988,
      "ĠTHAT": 7989,
      "asper": 7990,
      "Ġhaired": 7991,
      "Ġsales": 7992,
      "Ġsignal": 7993,
      "Ġspirit": 7994,
      "ĠMadd": 7995,
      "venge": 7996,
      "Ġkneeled": 7997,
      "nesday": 7998,
      "Ġmaintain": 7999,
      "iture": 8000,
      "ĠDarlene": 8001,
      "Ġslumped": 8002,
      "ĠJesus": 8003,
      "Ġconcentrated": 8004,
      "lad": 8005,
      "Ġrude": 8006,
      "Ġchoke": 8007,
      "ships": 8008,
      "Ġanswering": 8009,
      "kin": 8010,
      "Ġshakes": 8011,
      "Ġplant": 8012,
      "ĠCaroline": 8013,
      "Ġtesticles": 8014,
      "Ġfamilies": 8015,
      "pir": 8016,
      "ĠJune": 8017,
      "Ġbitter": 8018,
      "Ġrippled": 8019,
      "Ġhandcuffs": 8020,
      "ĠSum": 8021,
      "ĠMont": 8022,
      "ĠKerry": 8023,
      "Ġcurvy": 8024,
      "Ġdisgusted": 8025,
      "Ġperfume": 8026,
      "wel": 8027,
      "Ġspasmed": 8028,
      "Ġcurtains": 8029,
      "Put": 8030,
      "ĠSophia": 8031,
      "Ġhom": 8032,
      "Ġrubs": 8033,
      "Ġreplies": 8034,
      "Yep": 8035,
      "Ġfrag": 8036,
      "Ġmatters": 8037,
      "Ġcompliment": 8038,
      "Ġblankets": 8039,
      "kkkk": 8040,
      "Ġwishing": 8041,
      "Ġmic": 8042,
      "Ġatop": 8043,
      "Ġroommate": 8044,
      "Ġrecall": 8045,
      "Ġwinter": 8046,
      "Ġsouth": 8047,
      "Ġfingerna": 8048,
      "isk": 8049,
      "veled": 8050,
      "Ġsuccessful": 8051,
      "Ġbackward": 8052,
      "Ġimpact": 8053,
      "Ġbalc": 8054,
      "Ġforbidden": 8055,
      "ĠMJ": 8056,
      "ĠNone": 8057,
      "Ġtrad": 8058,
      "Ġhowled": 8059,
      "Ġprobed": 8060,
      "Ġprize": 8061,
      "Ġparting": 8062,
      "Ġmarket": 8063,
      "Ġimmense": 8064,
      "Ġcore": 8065,
      "ĠOpen": 8066,
      "Ġtracks": 8067,
      "upting": 8068,
      "Ġrestraints": 8069,
      "erk": 8070,
      "Ġdesired": 8071,
      "host": 8072,
      "ĠZach": 8073,
      "Ġhorm": 8074,
      "Ġcreate": 8075,
      "Ġtypical": 8076,
      "arded": 8077,
      "ĠRalph": 8078,
      "Ġpubes": 8079,
      "Ġmountain": 8080,
      "Ġeup": 8081,
      "Ġstirring": 8082,
      "Ġspurts": 8083,
      "Ġbelonged": 8084,
      "Ġvulva": 8085,
      "Ġwinced": 8086,
      "ĠClint": 8087,
      "Ġcheerleader": 8088,
      "master": 8089,
      "atory": 8090,
      "ĠDay": 8091,
      "ĠDill": 8092,
      "Ġflip": 8093,
      "ĠKel": 8094,
      "Ġdrool": 8095,
      "Ġscramb": 8096,
      "Ġdumped": 8097,
      "icted": 8098,
      "ĠCandice": 8099,
      "Ġglory": 8100,
      "ĠMia": 8101,
      "ĠSmiling": 8102,
      "Ġgoal": 8103,
      "Ġclearing": 8104,
      "Ġcram": 8105,
      "ĠBea": 8106,
      "Ġporno": 8107,
      "ero": 8108,
      "Ġgushing": 8109,
      "ĠRemember": 8110,
      "Ġfurious": 8111,
      "cut": 8112,
      "Ġshowers": 8113,
      "Ġcomplain": 8114,
      "ĠSpe": 8115,
      "Ġchamber": 8116,
      "Ġhighly": 8117,
      "Ġwont": 8118,
      "Ġbeck": 8119,
      "Ġsmoothly": 8120,
      "wood": 8121,
      "ĠWait": 8122,
      "ĠDV": 8123,
      "Ġverge": 8124,
      "Ġstam": 8125,
      "Ġdegr": 8126,
      "ĠGwen": 8127,
      "Ġcorners": 8128,
      "ĠEle": 8129,
      "Ġinev": 8130,
      "Ġsuppl": 8131,
      "rincess": 8132,
      "Ġvigorously": 8133,
      "Ġmasc": 8134,
      "Ġsorts": 8135,
      "Ġaston": 8136,
      "Ġsurvive": 8137,
      "Ġcontempl": 8138,
      "ĠRuss": 8139,
      "Ġexplan": 8140,
      "Ġeleven": 8141,
      "Ġcharged": 8142,
      "aah": 8143,
      "Ġradio": 8144,
      "Ġjiggling": 8145,
      "Ġconsequ": 8146,
      "Ġmedical": 8147,
      "Ġreacted": 8148,
      "ĠGret": 8149,
      "Ġlegal": 8150,
      "Ġdump": 8151,
      "aired": 8152,
      "Ġdesign": 8153,
      "Ġrelieve": 8154,
      "Ġslime": 8155,
      "Ġfrantic": 8156,
      "Ġweakly": 8157,
      "Hmm": 8158,
      "ryff": 8159,
      "Ġpaint": 8160,
      "Ġcaptured": 8161,
      "Ġdamned": 8162,
      "making": 8163,
      "Ġsubtle": 8164,
      "Ġsuffer": 8165,
      "ĠWednesday": 8166,
      "Ġrealise": 8167,
      "Ġdoorbell": 8168,
      "ĠToday": 8169,
      "rom": 8170,
      "Ġdarker": 8171,
      "imum": 8172,
      "Ġaggressive": 8173,
      "ino": 8174,
      "Ġdegree": 8175,
      "ryffind": 8176,
      "Ġcrad": 8177,
      "ĠPeople": 8178,
      "Ġslips": 8179,
      "ĠBat": 8180,
      "ĠGen": 8181,
      "Ġdelighted": 8182,
      "Ġfreshly": 8183,
      "aste": 8184,
      "ĠDiamond": 8185,
      "ĠNor": 8186,
      "Ġglances": 8187,
      "Ġcontrolled": 8188,
      "Ġaffect": 8189,
      "ĠYOUR": 8190,
      "Ġschedule": 8191,
      "Ġgreedily": 8192,
      "Ġvent": 8193,
      "Ġsecretly": 8194,
      "Ġlubricant": 8195,
      "itary": 8196,
      "Ġsuction": 8197,
      "ĠPre": 8198,
      "Ġarmy": 8199,
      "Ġsnar": 8200,
      "Ġburying": 8201,
      "Ġfurniture": 8202,
      "down": 8203,
      "Ġpitch": 8204,
      "Ġresponding": 8205,
      "Ġargue": 8206,
      "Ġprotection": 8207,
      "Ġhypnot": 8208,
      "Ġsuite": 8209,
      "Ġamb": 8210,
      "Ġpert": 8211,
      "alley": 8212,
      "Ġsob": 8213,
      "Ġunknown": 8214,
      "istr": 8215,
      "Ġregained": 8216,
      "Ġtrunks": 8217,
      "Ġintroduce": 8218,
      "cock": 8219,
      "hip": 8220,
      "Ġflopped": 8221,
      "ĠSimon": 8222,
      "Ġ****": 8223,
      "ĠSav": 8224,
      "ĠAh": 8225,
      "Ġleak": 8226,
      "Ġleaked": 8227,
      "obody": 8228,
      "Ġcastle": 8229,
      "ĠUsing": 8230,
      "Ġaccommodate": 8231,
      "ĠDaisy": 8232,
      "Ġtur": 8233,
      "Ġmane": 8234,
      "urned": 8235,
      "inkled": 8236,
      "LEASE": 8237,
      "rett": 8238,
      "Ġsnuck": 8239,
      "Ġdeliberately": 8240,
      "Ġbalcony": 8241,
      "Ġeuph": 8242,
      "lla": 8243,
      "Ġopinion": 8244,
      "Ġocean": 8245,
      "ĠGail": 8246,
      "Ġpropped": 8247,
      "ĠDev": 8248,
      "ĠBrook": 8249,
      "Ġtrailer": 8250,
      "With": 8251,
      "Ġgreater": 8252,
      "Ġpositive": 8253,
      "Ġsmoking": 8254,
      "Ġattempting": 8255,
      "Ġmeth": 8256,
      "Ġsuc": 8257,
      "Ġtouches": 8258,
      "Ġcopy": 8259,
      "Ġsquatted": 8260,
      "mph": 8261,
      "thro": 8262,
      "Ġspasming": 8263,
      "ĠQuickly": 8264,
      "ribly": 8265,
      "Ġincident": 8266,
      "Ġshirts": 8267,
      "Ġstrangers": 8268,
      "VER": 8269,
      "ĠHead": 8270,
      "Ġcursed": 8271,
      "Ġragged": 8272,
      "ĠRenee": 8273,
      "ees": 8274,
      "Ġca": 8275,
      "Ġcrushed": 8276,
      "Ġnewly": 8277,
      "Ġcaptain": 8278,
      "ĠMcG": 8279,
      "Ġswiftly": 8280,
      "Ġetc": 8281,
      "elax": 8282,
      "Ġexplaining": 8283,
      "Ġnostrils": 8284,
      "ĠStop": 8285,
      "Ġsteal": 8286,
      "Ġcurls": 8287,
      "Ġindicated": 8288,
      "Only": 8289,
      "mail": 8290,
      "Ġcy": 8291,
      "ĠEver": 8292,
      "anging": 8293,
      "Ġclutched": 8294,
      "ĠDillon": 8295,
      "Ġowe": 8296,
      "Ġboxes": 8297,
      "tery": 8298,
      "ural": 8299,
      "ĠCraig": 8300,
      "omething": 8301,
      "Ġthrusted": 8302,
      "Ġyoungest": 8303,
      "Ġlather": 8304,
      "Ġbran": 8305,
      "Ġsubst": 8306,
      "Ġexchange": 8307,
      "Ġcentre": 8308,
      "ĠDVD": 8309,
      "con": 8310,
      "ĠEarth": 8311,
      "avel": 8312,
      "ĠStephen": 8313,
      "ianca": 8314,
      "Ġbob": 8315,
      "Ġgap": 8316,
      "ĠGene": 8317,
      "ĠGryffind": 8318,
      "Dad": 8319,
      "ĠCourt": 8320,
      "Ġsmacking": 8321,
      "Ġcircling": 8322,
      "Ġeffects": 8323,
      "ĠGrabbing": 8324,
      "Ġlawn": 8325,
      "Ġseductive": 8326,
      "ĠEspecially": 8327,
      "Ġfloating": 8328,
      "Ġdildos": 8329,
      "Ġconsciousness": 8330,
      "cup": 8331,
      "ĠBree": 8332,
      "ylan": 8333,
      "Ġdemanding": 8334,
      "ĠSmith": 8335,
      "Love": 8336,
      "ige": 8337,
      "Ġwag": 8338,
      "Ġworship": 8339,
      "Ġwanton": 8340,
      "Ġboyfriends": 8341,
      "vity": 8342,
      "ĠToo": 8343,
      "ĠBre": 8344,
      "Ġteens": 8345,
      "uto": 8346,
      "ayla": 8347,
      "Ġsucceed": 8348,
      "ĠWar": 8349,
      "Ġcareer": 8350,
      "Ġfile": 8351,
      "Ġcrashed": 8352,
      "Ġenvel": 8353,
      "ĠInside": 8354,
      "ĠYork": 8355,
      "Ġlessons": 8356,
      "Ġemotional": 8357,
      "Ġdeclared": 8358,
      "Ġep": 8359,
      "Ġdismiss": 8360,
      "Ġcandle": 8361,
      "Ġappointment": 8362,
      "rina": 8363,
      "ribut": 8364,
      "Ġexplosion": 8365,
      "Per": 8366,
      "Ġdared": 8367,
      "Ġdiamond": 8368,
      "Ġrealization": 8369,
      "Ġcrawling": 8370,
      "Ġinex": 8371,
      "Ġsmelling": 8372,
      "ĠGabby": 8373,
      "Ġshivering": 8374,
      "Ġexquisite": 8375,
      "Ġamused": 8376,
      "Ġchicken": 8377,
      "Ġpotential": 8378,
      "Ġhottest": 8379,
      "onag": 8380,
      "Ġvanished": 8381,
      "Ġponytail": 8382,
      "Ġexchanged": 8383,
      "50": 8384,
      "Ġovert": 8385,
      "ĠPri": 8386,
      "Ġcheered": 8387,
      "Ġwillingly": 8388,
      "Ġrobes": 8389,
      "Ġsam": 8390,
      "ĠMindy": 8391,
      "Ġclinging": 8392,
      "ĠCho": 8393,
      "Ġimpression": 8394,
      "Ġshyly": 8395,
      "Ġshifting": 8396,
      "Ġflowers": 8397,
      "uced": 8398,
      "Ġconvulsing": 8399,
      "Ġsevere": 8400,
      "ĠMat": 8401,
      "ĠRuth": 8402,
      "Ġ!": 8403,
      "Ġbecomes": 8404,
      "Ġlod": 8405,
      "ĠMany": 8406,
      "Ġquicker": 8407,
      "lined": 8408,
      "Ġhump": 8409,
      "Ġthirst": 8410,
      "Ġcollection": 8411,
      "Ġcolored": 8412,
      "Ġphallus": 8413,
      "aud": 8414,
      "Ġsuspect": 8415,
      "Ġshivers": 8416,
      "Ġglued": 8417,
      "Ġ34": 8418,
      "Ġcircumstances": 8419,
      "Ġelf": 8420,
      "ĠSan": 8421,
      "ĠBianca": 8422,
      "mediately": 8423,
      "Ġflirting": 8424,
      "Ġstreams": 8425,
      "Ġtrash": 8426,
      "Ġdrunken": 8427,
      "Ġà¤": 8428,
      "Ġplunge": 8429,
      "Ġhusbands": 8430,
      "Ġcreating": 8431,
      "Ġmilked": 8432,
      "Ġdisturb": 8433,
      "Ġurine": 8434,
      "Ġcushion": 8435,
      "ĠMcGonag": 8436,
      "het": 8437,
      "asions": 8438,
      "Ġopenly": 8439,
      "Ġstripping": 8440,
      "Ġpeeked": 8441,
      "Ġstagg": 8442,
      "ĠPres": 8443,
      "ĠLyn": 8444,
      "Ġsons": 8445,
      "Ġmout": 8446,
      "Ġcops": 8447,
      "Ġheadboard": 8448,
      "Ġinvoluntarily": 8449,
      "Ġenvelope": 8450,
      "Ġwax": 8451,
      "ĠJanice": 8452,
      "Ġsplashing": 8453,
      "hest": 8454,
      "ĠJer": 8455,
      "Ġaloud": 8456,
      "Ġsoftening": 8457,
      "Ġcub": 8458,
      "Ġnavel": 8459,
      "Ġsixty": 8460,
      "Ġsinking": 8461,
      "Ġoutfits": 8462,
      "Ġblown": 8463,
      "Ġexperiencing": 8464,
      "ĠMaya": 8465,
      "Ġdestroyed": 8466,
      "Ġimmediate": 8467,
      "Ġtaut": 8468,
      "Ġinse": 8469,
      "ounced": 8470,
      "John": 8471,
      "ĠThinking": 8472,
      "ĠLouise": 8473,
      "Ġcontained": 8474,
      "Ġweapons": 8475,
      "pants": 8476,
      "Ġencouraging": 8477,
      "Make": 8478,
      "Ġtradition": 8479,
      "Huh": 8480,
      "Ġapparent": 8481,
      "Ġhopes": 8482,
      "Ġslightest": 8483,
      "Ġtreas": 8484,
      "Ġbothering": 8485,
      "Ġbased": 8486,
      "Ġwomanhood": 8487,
      "urance": 8488,
      "Ġvampire": 8489,
      "Ġwizard": 8490,
      "Ġcart": 8491,
      "irley": 8492,
      "erva": 8493,
      "aware": 8494,
      "phas": 8495,
      "Ġtransfer": 8496,
      "Ġexhaust": 8497,
      "Ġproved": 8498,
      "ĠPatrick": 8499,
      "Ġloung": 8500,
      "Ġpleasuring": 8501,
      "beat": 8502,
      "Ġsubmission": 8503,
      "ĠSchool": 8504,
      "Ġsole": 8505,
      "Ġbreaks": 8506,
      "Ġencouragement": 8507,
      "Ġskimpy": 8508,
      "Was": 8509,
      "ji": 8510,
      "urpr": 8511,
      "Ġblo": 8512,
      "Ġserving": 8513,
      "ĠShelby": 8514,
      "ĠGeorgia": 8515,
      "?!\"": 8516,
      "Ġpist": 8517,
      "Ġmush": 8518,
      "ĠImmediately": 8519,
      "ĠBIG": 8520,
      "Ġstrict": 8521,
      "Ġengaged": 8522,
      "ĠHoly": 8523,
      "Ġpeeled": 8524,
      "ral": 8525,
      "ĠUntil": 8526,
      "Ġcabinet": 8527,
      "-\"": 8528,
      "Ġstif": 8529,
      "ĠAnt": 8530,
      "estly": 8531,
      "Ġbras": 8532,
      "Ġthrashing": 8533,
      "Ġrolls": 8534,
      "Ġtraveled": 8535,
      "Ġtemperature": 8536,
      "Ġflavor": 8537,
      "Ġjacked": 8538,
      "Ġlamp": 8539,
      "char": 8540,
      "ĠHoney": 8541,
      "Ġcrown": 8542,
      "Ġresults": 8543,
      "Ġpumps": 8544,
      "ainted": 8545,
      "ĠBE": 8546,
      "Ġarousing": 8547,
      "Ġwad": 8548,
      "Ġunbuck": 8549,
      "Ġpleasing": 8550,
      "unte": 8551,
      "ĠBon": 8552,
      "Ġpainting": 8553,
      "ciety": 8554,
      "ĠFortun": 8555,
      "iance": 8556,
      "Ġlux": 8557,
      "Ġstrings": 8558,
      "Ġraping": 8559,
      "Ġstrapped": 8560,
      "damn": 8561,
      "ĠKiss": 8562,
      "Ġdisplayed": 8563,
      "Ġsniffed": 8564,
      "Ġvehicle": 8565,
      "Ġmansion": 8566,
      "Ġpossibility": 8567,
      "Ġexplanation": 8568,
      "AM": 8569,
      "AY": 8570,
      "ensive": 8571,
      "Ġmessy": 8572,
      "Ġlifts": 8573,
      "REAK": 8574,
      "Ġaffair": 8575,
      "Ġobserved": 8576,
      "Ġsavored": 8577,
      "Ġdemonstr": 8578,
      "Ġtag": 8579,
      "Gu": 8580,
      "ĠKitty": 8581,
      "Ġwailed": 8582,
      "Ġintellig": 8583,
      "ĠStan": 8584,
      "your": 8585,
      "attering": 8586,
      "Ġshelf": 8587,
      "Ġclad": 8588,
      "Ġpanicked": 8589,
      ">>>>": 8590,
      "ĠSecond": 8591,
      "ram": 8592,
      "ĠActually": 8593,
      "Ġtriang": 8594,
      "Ġgenerous": 8595,
      "Ġsatin": 8596,
      "Ġhelps": 8597,
      "Ġvolume": 8598,
      "iac": 8599,
      "itals": 8600,
      "Ġsuits": 8601,
      "Ġresol": 8602,
      "Ġbreed": 8603,
      "Ġlays": 8604,
      "Ġranch": 8605,
      "ĠMeg": 8606,
      "Ġcomplim": 8607,
      "Ġnearest": 8608,
      "course": 8609,
      "Ġcaf": 8610,
      "rop": 8611,
      "Ġresc": 8612,
      "Ġcomposure": 8613,
      "Ġdistant": 8614,
      "ĠSherri": 8615,
      "nic": 8616,
      "ĠLaurie": 8617,
      "ĠMinerva": 8618,
      "ĠWalking": 8619,
      "Ġog": 8620,
      "earl": 8621,
      "ĠEddie": 8622,
      "Her": 8623,
      "Ġdrift": 8624,
      "Ġremark": 8625,
      "Ġsweetly": 8626,
      "Ġconsent": 8627,
      "Ġiniti": 8628,
      "Ġpreferred": 8629,
      "Ġmethod": 8630,
      "Yea": 8631,
      "lia": 8632,
      "Ġtraffic": 8633,
      "Ġheavier": 8634,
      "Ġpra": 8635,
      "Ġrange": 8636,
      "Ġtrusted": 8637,
      "Ġrevenge": 8638,
      "Ġbury": 8639,
      "ĠBridget": 8640,
      "Ġjock": 8641,
      "Ġfourteen": 8642,
      "ĠReg": 8643,
      "Ġcircular": 8644,
      "Ġwhimpers": 8645,
      "Ġclaimed": 8646,
      "yard": 8647,
      "Ġdial": 8648,
      "Ġamuse": 8649,
      "Ġdism": 8650,
      "Ġproof": 8651,
      "Ġcunts": 8652,
      "onsciously": 8653,
      "Ġcraving": 8654,
      "Ġurged": 8655,
      "Ġcrowded": 8656,
      "ums": 8657,
      "ĠDel": 8658,
      "ĠLO": 8659,
      "Ġcanal": 8660,
      "Ġconfessed": 8661,
      "Ġdistract": 8662,
      "Ġactive": 8663,
      "ĠFucking": 8664,
      "Ġbubble": 8665,
      "Ġmutual": 8666,
      "Ġtexted": 8667,
      "uled": 8668,
      "ĠRub": 8669,
      "Ġskipped": 8670,
      "ham": 8671,
      "inity": 8672,
      "Ġforces": 8673,
      "ĠPrincess": 8674,
      "azing": 8675,
      "ĠShirley": 8676,
      "Ġversion": 8677,
      "sm": 8678,
      "Ġweb": 8679,
      "Ġdesp": 8680,
      "Ġpreviously": 8681,
      "Ġhumiliated": 8682,
      "Ġyelp": 8683,
      "cr": 8684,
      "ooper": 8685,
      "Ġabsor": 8686,
      "Ġmasturbation": 8687,
      "Ġbuzzing": 8688,
      "iet": 8689,
      "Ġcord": 8690,
      "ander": 8691,
      "Ġaudible": 8692,
      "Ġprotruding": 8693,
      "ouring": 8694,
      "Ġbursting": 8695,
      "Ġattempts": 8696,
      "Ġaccompan": 8697,
      "Ġabandoned": 8698,
      "Ġintent": 8699,
      "Ġboxer": 8700,
      "Ġlubrication": 8701,
      "inks": 8702,
      "Ġstriking": 8703,
      "Ġoccasions": 8704,
      "ĠRem": 8705,
      "Ġconsumed": 8706,
      "Ġvolunte": 8707,
      "Ġaccidentally": 8708,
      "Ġensure": 8709,
      "ĠSylvia": 8710,
      "Ġwanking": 8711,
      "urry": 8712,
      "Ġbackpack": 8713,
      "umm": 8714,
      "izzy": 8715,
      "Ġbarked": 8716,
      "Ġdull": 8717,
      "Ġlimbs": 8718,
      "RR": 8719,
      "atisf": 8720,
      "Ġcontents": 8721,
      "Ġscare": 8722,
      "âĢĶâĢĶ": 8723,
      "Ġstimulating": 8724,
      "Ġdiscussion": 8725,
      "Ġfolks": 8726,
      "Ġmail": 8727,
      "ĠHot": 8728,
      "ĠShep": 8729,
      "Ġcoy": 8730,
      "ĠPier": 8731,
      "hhhhhh": 8732,
      "ĠJones": 8733,
      "ĠDO": 8734,
      "Ġmedium": 8735,
      "Ġretrieved": 8736,
      "âĤ¬ÂŃ": 8737,
      "ught": 8738,
      "Ġwishes": 8739,
      "irteen": 8740,
      "ĠShould": 8741,
      "Ġinvis": 8742,
      "Ġmales": 8743,
      "Sounds": 8744,
      "five": 8745,
      "Ġnuzzled": 8746,
      "Ġbreathless": 8747,
      "Ġjiggled": 8748,
      "Ġpervert": 8749,
      "uri": 8750,
      "ĠAud": 8751,
      "Ġenthusiasm": 8752,
      "Ġstubb": 8753,
      "Ġreplace": 8754,
      "Ġshoe": 8755,
      "Ġemphas": 8756,
      "Ġforceful": 8757,
      "Ġintoxicating": 8758,
      "onda": 8759,
      "Ġskull": 8760,
      "Ġped": 8761,
      "ĠSweet": 8762,
      "Ġcousins": 8763,
      "ĠViolet": 8764,
      "aley": 8765,
      "ĠQueenie": 8766,
      "ĠSU": 8767,
      "Ġchem": 8768,
      "Ġsavage": 8769,
      "Pro": 8770,
      "Ġelectricity": 8771,
      "Ġbulbous": 8772,
      "Ġunbelievable": 8773,
      "Ġsch": 8774,
      "esse": 8775,
      "Ġcrash": 8776,
      "ĠDeath": 8777,
      "Ġedges": 8778,
      "ĠReally": 8779,
      "Ġwiggle": 8780,
      "ĠBitch": 8781,
      "Ġuses": 8782,
      "Ġreser": 8783,
      "Ġsupple": 8784,
      "ua": 8785,
      "ĠHay": 8786,
      "Ġcrashing": 8787,
      "Ġspraying": 8788,
      "Open": 8789,
      "à¥": 8790,
      "Ġacts": 8791,
      "Ġelastic": 8792,
      "ĠAnita": 8793,
      "Ġgesture": 8794,
      "ĠFortunately": 8795,
      "Ġearned": 8796,
      "Ġflirt": 8797,
      "Ġmiser": 8798,
      "Ġlingering": 8799,
      "Ġoccupied": 8800,
      "BREAK": 8801,
      "Ġseeking": 8802,
      "ĠON": 8803,
      "with": 8804,
      "Ġunaware": 8805,
      "agne": 8806,
      "!!!\"": 8807,
      "Ġprior": 8808,
      "Ġwobb": 8809,
      "hell": 8810,
      "ldon": 8811,
      "Ġenh": 8812,
      "Ġfifth": 8813,
      "Ġstares": 8814,
      "Ġcandles": 8815,
      "Ġcrossing": 8816,
      "Ġunloaded": 8817,
      "Ġtv": 8818,
      "Ġfal": 8819,
      "Ġwhoever": 8820,
      "Ġhealth": 8821,
      "KE": 8822,
      "rowed": 8823,
      "ota": 8824,
      "Ġslaps": 8825,
      "Nope": 8826,
      "Ġcontra": 8827,
      "Ġvague": 8828,
      "Ġfingernails": 8829,
      "ouch": 8830,
      "Ġshack": 8831,
      "ĠFiona": 8832,
      "Ġpolite": 8833,
      "ĠMall": 8834,
      "ishment": 8835,
      "Ġrefuse": 8836,
      "Ġarrival": 8837,
      "daughter": 8838,
      "assy": 8839,
      "Ġovercome": 8840,
      "Ġhumiliating": 8841,
      "Listen": 8842,
      "aruto": 8843,
      "Ġfriendship": 8844,
      "Ġindivid": 8845,
      "Ġwelc": 8846,
      "Ġquarters": 8847,
      "Ġske": 8848,
      "Ġunleas": 8849,
      "Ġdish": 8850,
      "Ġregain": 8851,
      "Ġstiffen": 8852,
      "Ġshuffled": 8853,
      "LE": 8854,
      "Ġbrill": 8855,
      "Ġcoax": 8856,
      "Ġperverted": 8857,
      "ĠWin": 8858,
      "ĠKenny": 8859,
      "ĠFour": 8860,
      "Ġtasty": 8861,
      "Ġsupper": 8862,
      "Ġappreciated": 8863,
      "ĠGrandma": 8864,
      "Ġlies": 8865,
      "Ġpeek": 8866,
      "Ġrequire": 8867,
      "Ġharvey": 8868,
      "Ġchannel": 8869,
      "Ġwitch": 8870,
      "ories": 8871,
      "Ġuncl": 8872,
      "Ġfrenzy": 8873,
      "Ġsnarled": 8874,
      "Ġwank": 8875,
      "Ġlightning": 8876,
      "Ġbuying": 8877,
      "Ġtracing": 8878,
      "Ġargument": 8879,
      "Ġresort": 8880,
      "Ġdetect": 8881,
      "KK": 8882,
      "Ġelic": 8883,
      "Ġfantasized": 8884,
      "First": 8885,
      "Ġquality": 8886,
      "Ġresearch": 8887,
      "ĠMaddie": 8888,
      "leasure": 8889,
      "Ġapologized": 8890,
      "Ġtissue": 8891,
      "Ġcandy": 8892,
      "Ġblocked": 8893,
      "Ġjolt": 8894,
      "ĠHarold": 8895,
      "Ġlur": 8896,
      "Ġslither": 8897,
      "ends": 8898,
      "net": 8899,
      "ĠEr": 8900,
      "Ġgrat": 8901,
      "Ġdesigned": 8902,
      "Ġbrave": 8903,
      "Ġappropriate": 8904,
      "Tw": 8905,
      "Ġslacks": 8906,
      "ĠDot": 8907,
      "....\"": 8908,
      "ĠDoc": 8909,
      "âĢĶâĢĿ": 8910,
      "Ġsandwich": 8911,
      "Ġlic": 8912,
      "retty": 8913,
      "ruction": 8914,
      "Ġtortured": 8915,
      "Ġcostume": 8916,
      "Ġexhaustion": 8917,
      "inating": 8918,
      "Ġcav": 8919,
      "Ġundone": 8920,
      "Ġglare": 8921,
      "ĠStar": 8922,
      "isto": 8923,
      "ode": 8924,
      "ĠPark": 8925,
      "Ġfascinated": 8926,
      "bout": 8927,
      "bviously": 8928,
      "FUCK": 8929,
      "filled": 8930,
      "Ġdated": 8931,
      "Ġdele": 8932,
      "Ġbedside": 8933,
      "Ġmild": 8934,
      "Ġhabit": 8935,
      "Ġresisted": 8936,
      "Ġgroped": 8937,
      "Ġresponsible": 8938,
      "which": 8939,
      "Ġwitnessed": 8940,
      "ubby": 8941,
      "Ġspill": 8942,
      "Ġpeered": 8943,
      "rifice": 8944,
      "Ġsadly": 8945,
      "Ġprompt": 8946,
      "Ġglistened": 8947,
      "Ġsuggestion": 8948,
      "Ġlawyer": 8949,
      "Ġthats": 8950,
      "Ġspeechless": 8951,
      "Ġbondage": 8952,
      "Actually": 8953,
      "Ġrab": 8954,
      "umble": 8955,
      "Ġven": 8956,
      "ĠMartin": 8957,
      "emy": 8958,
      "inent": 8959,
      "Ġnic": 8960,
      "Ġenemy": 8961,
      "lights": 8962,
      "ĠDarren": 8963,
      "ĠSanti": 8964,
      "Ġfaith": 8965,
      "Ġsobs": 8966,
      "ĠDylan": 8967,
      "Ġlocks": 8968,
      "Ġarrow": 8969,
      "Ġsmells": 8970,
      "ĠChristie": 8971,
      "ussy": 8972,
      "ula": 8973,
      "ondon": 8974,
      "Ġpatio": 8975,
      "Ġoozed": 8976,
      "Ġthreatening": 8977,
      "Ġcommunic": 8978,
      "Ġ200": 8979,
      "Ġgrandma": 8980,
      "uate": 8981,
      "alizing": 8982,
      "igail": 8983,
      "ĠEither": 8984,
      "Ġvisibly": 8985,
      "ciless": 8986,
      "Ġmath": 8987,
      "inged": 8988,
      "Ġpose": 8989,
      "umes": 8990,
      "ĠJordan": 8991,
      "tha": 8992,
      "Ġdollar": 8993,
      "Ġmedic": 8994,
      "Ġoblivious": 8995,
      "ILL": 8996,
      "Ġbedrooms": 8997,
      "Ġregularly": 8998,
      "Ġhundreds": 8999,
      "Ġfeared": 9000,
      "ability": 9001,
      "Ġpleasures": 9002,
      "Ġvisiting": 9003,
      "Ġpulsed": 9004,
      "Ġginger": 9005,
      "Ġras": 9006,
      "Ġirrit": 9007,
      "Ġtaboo": 9008,
      "ĠScarlett": 9009,
      "Ġtrap": 9010,
      "Ġautomatically": 9011,
      "stop": 9012,
      "Ġoutst": 9013,
      "Hold": 9014,
      "ĠBell": 9015,
      "Ġremains": 9016,
      "ĠGryffindor": 9017,
      "lar": 9018,
      "Ġthus": 9019,
      "elcome": 9020,
      "Ġroared": 9021,
      "Ġplates": 9022,
      "Ġprospect": 9023,
      "ĠJoan": 9024,
      "Ġcomplaining": 9025,
      "berry": 9026,
      "Ġbladder": 9027,
      "ĠShay": 9028,
      "Ġstrangely": 9029,
      "ĠSuck": 9030,
      "Ġuniversity": 9031,
      "ĠKatherine": 9032,
      "Ġcurved": 9033,
      "Ġsexuality": 9034,
      "walk": 9035,
      "Ġsipped": 9036,
      "Ġminor": 9037,
      "Ġpinning": 9038,
      "omen": 9039,
      "ĠMaking": 9040,
      "Ġgazing": 9041,
      "Ġmerciless": 9042,
      "Ġbruised": 9043,
      "Ġbid": 9044,
      "Ġyards": 9045,
      "uses": 9046,
      "ĠSly": 9047,
      "ĠRex": 9048,
      "aken": 9049,
      "Ġcoughed": 9050,
      "azor": 9051,
      "ĠOliver": 9052,
      "ĠWay": 9053,
      "Ġkneading": 9054,
      "Ġpriest": 9055,
      "Ġshru": 9056,
      "Ġprostit": 9057,
      "ĠTob": 9058,
      "Ġjab": 9059,
      "ucker": 9060,
      "Ġcloses": 9061,
      "Ġhears": 9062,
      "Ġremarked": 9063,
      "Ġvirt": 9064,
      "Ġretre": 9065,
      "Ġwre": 9066,
      "Ġbullet": 9067,
      "ĠPeggy": 9068,
      "Ġhero": 9069,
      "Ġpleasured": 9070,
      "Ġhuff": 9071,
      "Ġurges": 9072,
      "ston": 9073,
      "Ġsealed": 9074,
      "Ġflung": 9075,
      "retched": 9076,
      "Ġpathetic": 9077,
      "Ġ45": 9078,
      "Ġinflu": 9079,
      "Ġlatex": 9080,
      "Ġexample": 9081,
      "arant": 9082,
      "Ġpoke": 9083,
      "Ġjewel": 9084,
      "Ġlatest": 9085,
      "Ġobliged": 9086,
      "Jesus": 9087,
      "ĠTJ": 9088,
      "Ġweigh": 9089,
      "Ġlobby": 9090,
      "Ġridiculous": 9091,
      "Ġheel": 9092,
      "ĠLondon": 9093,
      "Ġhappier": 9094,
      "Ġdrain": 9095,
      "Ġteenagers": 9096,
      "Ġestab": 9097,
      "Ġmechan": 9098,
      "Ġacqu": 9099,
      "Ġloosen": 9100,
      "Ġmushroom": 9101,
      "Ġwelcomed": 9102,
      "lude": 9103,
      "ĠHun": 9104,
      "12": 9105,
      "aksh": 9106,
      "Ġbeaten": 9107,
      "Ġthirteen": 9108,
      "âĢ¦âĢ¦.": 9109,
      "Ġwarmed": 9110,
      "Ġstates": 9111,
      "Ġflared": 9112,
      "Ġbrightly": 9113,
      "Ġcasc": 9114,
      "Ġgulp": 9115,
      "Ġfishing": 9116,
      "Ġseduce": 9117,
      "ĠÃ¢": 9118,
      "Ġdizzy": 9119,
      "ĠShort": 9120,
      "mar": 9121,
      "ups": 9122,
      "Ġwhist": 9123,
      "Ġblunt": 9124,
      "reek": 9125,
      "Ġquickened": 9126,
      "Ġcrit": 9127,
      "cipl": 9128,
      "Ġoptions": 9129,
      "inge": 9130,
      "Ġjets": 9131,
      "elling": 9132,
      "Ġsought": 9133,
      "Ġfacial": 9134,
      "ok": 9135,
      "erous": 9136,
      "Ġbeamed": 9137,
      "Ġunfast": 9138,
      "Ġcommands": 9139,
      "ĠAbigail": 9140,
      "Ġcraved": 9141,
      "Ġnyl": 9142,
      "Ġflames": 9143,
      "Ġscree": 9144,
      "Ġforef": 9145,
      "Ġpeeking": 9146,
      "Ġpregnancy": 9147,
      "ĠRosie": 9148,
      "Ġblocks": 9149,
      "lysses": 9150,
      "usive": 9151,
      "string": 9152,
      "Ġlighting": 9153,
      "Ġspecific": 9154,
      "IM": 9155,
      "Jess": 9156,
      "Ġwis": 9157,
      "ĠRa": 9158,
      "Ġbeautifully": 9159,
      "ĠUs": 9160,
      "Ġshaky": 9161,
      "inis": 9162,
      "Ġseason": 9163,
      "see": 9164,
      "Ġfeather": 9165,
      "ĠKier": 9166,
      "Ġstudio": 9167,
      "iverse": 9168,
      "Ġcalves": 9169,
      "Ġexploding": 9170,
      "ĠSilk": 9171,
      "Ġconsequences": 9172,
      "Ġdust": 9173,
      "Ġgush": 9174,
      "ĠTroy": 9175,
      "ĠHA": 9176,
      "Ġenv": 9177,
      "Ġdeli": 9178,
      "ĠHi": 9179,
      "ĠCunt": 9180,
      "Ġdeciding": 9181,
      "Ġmusky": 9182,
      "Ġgrandfather": 9183,
      "Ġdribbling": 9184,
      "Ġareolas": 9185,
      "ĠCO": 9186,
      "ĠTonight": 9187,
      "Ġentertainment": 9188,
      "Ġtaxi": 9189,
      "Ġdates": 9190,
      "Ġhorrified": 9191,
      "Ġmonitor": 9192,
      "Ġmessages": 9193,
      "Ġwarn": 9194,
      "Ġsunlight": 9195,
      "Ġhesitantly": 9196,
      "Ġ....": 9197,
      "ima": 9198,
      "ĠPLEASE": 9199,
      "Ġbathed": 9200,
      "Ġprepar": 9201,
      "ĠBetween": 9202,
      "ĠIzzy": 9203,
      "Ġkeen": 9204,
      "eyed": 9205,
      "Ġbumped": 9206,
      "Ġliber": 9207,
      "ĠFive": 9208,
      "ĠMomma": 9209,
      "Ġleads": 9210,
      "Ġexamined": 9211,
      "Ġscrambled": 9212,
      "cts": 9213,
      "ola": 9214,
      "Ġcuts": 9215,
      "ĠGreta": 9216,
      "uz": 9217,
      "Ġgovern": 9218,
      "Ġbits": 9219,
      "Ġnightstand": 9220,
      "UUUU": 9221,
      "Ġstained": 9222,
      "Ġflaw": 9223,
      "Ġsnug": 9224,
      "Ġwidely": 9225,
      "Ġtickle": 9226,
      "Ġundressing": 9227,
      "Ġslower": 9228,
      "Ġoldest": 9229,
      "Ġintr": 9230,
      "Ġsecretary": 9231,
      "door": 9232,
      "||||||||": 9233,
      "ĠDaph": 9234,
      "Ġbites": 9235,
      "cient": 9236,
      "ibilities": 9237,
      "Ġshaving": 9238,
      "En": 9239,
      "Ġfucker": 9240,
      "Ġmattered": 9241,
      "Ġeleg": 9242,
[...]
